[PAD]
[UNK]
[CLS]
[SEP]
[MASK]
<S>
<T>
!
"
#
$
%
&
'
(
)
*
+
,
-
.
/
0
1
2
3
4
5
6
7
8
9
:
;
<
=
>
?
@
[
\
]
^
_
`
a
b
c
d
e
f
g
h
i
j
k
l
m
n
o
p
q
r
s
t
u
v
w
x
y
z
{
|
}
~
¡
¢
£
¤
¥
¦
§
¨
©
«
¬
®
¯
°
±
²
³
´
µ
¶
·
¸
¹
º
»
¼
½
¾
¿
×
ß
à
á
â
ã
ä
å
æ
ç
è
é
ê
ë
ì
í
î
ï
ð
ñ
ò
ó
ô
õ
ö
÷
ø
ù
ú
û
ü
ý
þ
ÿ
ā
ă
ć
č
ē
ę
ě
ğ
ġ
ħ
ī
ı
ł
ń
ō
ő
œ
ř
ś
ş
š
ū
ů
ż
ž
ƒ
ș
ț
ə
ʻ
ʼ
˚
˜
́
̂
̇
̈
̶
͵
ά
ί
α
β
γ
δ
ε
η
θ
ι
κ
λ
μ
ν
ο
π
ρ
ς
σ
τ
υ
φ
ω
ό
а
б
в
г
д
е
ж
з
и
й
к
л
м
н
о
п
р
с
т
у
ф
х
ц
ч
ш
щ
ы
ь
ю
я
ѕ
і
։
א
ב
ה
ו
י
ל
ר
ש
ת
،
ء
أ
إ
ئ
ا
ب
ة
ت
ث
ج
ح
خ
د
ذ
ر
ز
س
ش
ص
ض
ط
ظ
ع
غ
ف
ق
ك
ل
م
ن
ه
و
ى
ي
ً
َ
ّ
پ
ک
ی
ँ
ं
अ
आ
इ
ई
उ
ए
औ
क
ख
ग
च
छ
ज
ट
ड
ण
त
थ
द
ध
न
प
फ
ब
भ
म
य
र
ल
व
श
ष
स
ह
़
ा
ि
ी
ु
ू
े
ै
ो
्
।
॥
ক
ন
প
ম
র
শ
স
়
ঽ
া
্
০
১
২
৩
৪
৫
৬
৭
৮
৯
৲
৳
৹
৺
க
ச
ட
த
ந
ன
ப
ம
ய
ர
ற
ல
ள
வ
ா
ி
ு
ை
்
‐
‑
‒
–
—
―
‘
’
‚
“
”
„
†
•
…
′
″
‹
›
‼
⁄
⁰
₂
₃
€
₹
⃣
ℓ
℠
™
⅓
⅔
←
→
↓
∆
−
√
≤
≥
⏰
ⓐ
ⓘ
ⓛ
ⓟ
ⓢ
ⓣ
─
■
▪
▶
▸
►
◄
○
●
☀
★
☆
☕
☘
☝
☺
♀
♂
♠
♡
♣
♥
♦
⚡
⚪
⚽
⚾
✅
✈
✊
✌
✓
✔
✘
✞
✤
✨
✪
✭
✰
❄
❌
❗
❤
❥
➡
⠀
⬇
⭐
、
。
「
」
あ
い
う
え
お
か
が
き
く
け
こ
さ
し
じ
す
そ
た
だ
ち
っ
て
で
と
ど
な
に
の
は
ま
も
よ
ら
り
る
れ
わ
を
ん
ツ
ン
・
ー
ㅤ
一
三
上
下
不
世
业
东
並
个
中
为
主
之
也
了
事
二
于
些
产
京
人
今
他
以
们
任
但
位
低
何
作
來
例
供
保
信
個
們
债
健
元
光
入
內
全
公
共
其
出
分
利
到
制
前
劉
力
加
务
動
務
包
化
北
區
十
卐
南
博
原
去
及
发
受
口
句
可
台
司
合
同
名
向
吳
告
和
品
哲
商
嘉
回
因
国
國
園
團
在
地
型
城
基
報
場
增
外
多
大
天
她
好
如
子
學
宏
定
客
家
将
將
對
導
小
就
展
山
工
已
市
布
平
年
府
度
康
建
式
張
影
後
徐
得
德
心
志
性
您
情
惠
意
應
成
我
或
所
投
持
指
控
提
支
政
教
數
文
新
方
於
日
明
星
是
時
景
最
會
月
有
望
朝
期
本
李
東
极
林
果
柯
條
業
模
機
款
正
此
比
民
水
永
法
海
清
港
源
灣
為
物
特
率
王
現
理
生
產
用
由
發
的
目
相
看
石
研
示
社
私
科
租
立
等
管
系
約
級
經
繼
續
级
经
绿
美
義
習
者
而
聞
股
能
自
至
與
舞
花
英
華
蔡
行
表
被
西
要
視
計
許
評
詞
該
誉
認
說
譽
讀
评
費
資
賴
资
起
超
路
車
近
这
這
通
週
進
過
道
遠
還
部
都
重
量
金
銀
鋼
長
間
閱
關
限
院
陳
險
隱
集
電
面
頭
館
馆
首
馬
體
高
鴻
黃
點
다
의
이
ﬀ
ﬁ
ﬂ
️
（
）
，
－
：
？
ａ
￼
🇦
🇧
🇨
🇩
🇪
🇬
🇭
🇮
🇯
🇲
🇳
🇵
🇷
🇸
🇹
🇺
🇿
🌈
🌊
🌟
🌭
🌴
🌸
🌹
🌺
🌻
🍋
🍩
🍷
🍺
🍻
🍾
🎂
🎄
🎅
🎈
🎉
🎊
🎟
🎤
🎥
🎵
🎶
🏀
🏆
🏈
🏴
🏻
🏼
🏽
🏾
🏿
🐘
🐝
🐰
🐶
🐻
🐾
👀
👅
👇
👉
👊
👋
👌
👍
👎
👏
👑
👧
👩
👶
💀
💁
💃
💋
💍
💎
💔
💕
💖
💗
💘
💙
💚
💛
💜
💞
💥
💪
💫
💯
📰
📷
📸
📺
🔊
🔘
🔥
🔴
🔵
🕺
🖤
🗣
🗽
😀
😁
😂
😃
😅
😆
😇
😉
😊
😍
😎
😏
😒
😔
😘
😜
😡
😢
😣
😩
😪
😬
😭
😱
😳
🙂
🙄
🙈
🙌
🙏
🚀
🚨
🚮
🤔
🤗
🤘
🤙
🤣
🤦
🤶
🤷
🥂
🥇
🥜
🥤
🦁
🦄
🦋
##o
##n
##d
##t
##i
##c
##h
##4
##2
##3
##m
##e
##z
##f
##g
##u
##s
##a
##l
##x
##p
##r
##0
##1
##v
##9
##w
##5
##7
##b
##8
##k
##y
##6
##´
##ä
##j
##é
##q
##™
##因
##為
##去
##同
##而
##心
##×
##ó
##ç
##ã
##م
##ا
##ु
##क
##्
##र
##ब
##ा
##س
##ت
##ر
##ج
##ي
##ه
##â
##è
##天
##布
##ô
##å
##ß
##ñ
##®
##句
##成
##出
##現
##的
##文
##💛
##€
##œ
##²
##😡
##🇬
##👑
##🔴
##ö
##ħ
##美
##प
##स
##थ
##ि
##त
##अ
##न
##公
##和
##商
##以
##及
##三
##个
##社
##中
##£
##е
##м
##о
##н
##с
##т
##р
##и
##у
##ю
##間
##有
##任
##何
##頭
##利
##到
##力
##定
##者
##ए
##多
##馬
##ش
##ك
##و
##ن
##️
##˜
##⁄
##ê
##¢
##您
##意
##我
##們
##隱
##私
##條
##款
##🇷
##🇺
##á
##°
##で
##い
##😂
##🎉
##ب
##च
##一
##ल
##फ
##छ
##嘉
##ū
##भ
##य
##北
##共
##年
##在
##大
##發
##起
##方
##ं
##द
##ी
##♀
##í
##學
##े
##−
##ø
##❤
##ü
##🏽
##す
##る
##な
##ら
##产
##高
##级
##债
##务
##评
##🙏
##🏻
##😊
##是
##用
##或
##绿
##¼
##ù
##া
##れ
##っ
##て
##も
##ה
##ר
##ل
##ف
##ط
##ة
##û
##ā
##ë
##市
##ć
##♂
##ँ
##😇
##展
##銀
##行
##ى
##ь
##б
##л
##д
##к
##म
##♥
##♡
##💙
##ă
##ו
##ת
##י
##ど
##清
##お
##た
##う
##が
##よ
##德
##č
##譽
##評
##級
##已
##今
##日
##國
##京
##首
##鋼
##基
##金
##限
##司
##😍
##ع
##َ
##د
##व
##ह
##電
##信
##😁
##世
##些
##أ
##計
##上
##š
##ч
##ш
##а
##я
##👌
##👍
##💪
##ρ
##ι
##ō
##ح
##🙌
##🏼
##😀
##ì
##立
##光
##ò
##ī
##生
##會
##˚
##ț
##ú
##對
##此
##表
##示
##股
##近
##於
##其
##¥
##化
##型
##險
##明
##人
##の
##十
##分
##ł
##だ
##け
##し
##们
##可
##經
##由
##西
##平
##向
##南
##之
##海
##業
##法
##ो
##ट
##數
##得
##最
##η
##μ
##ε
##ί
##ο
##不
##了
##σ
##τ
##α
##✊
##🏾
##ड
##़
##і
##ѕ
##ı
##ث
##ş
##🖤
##于
##º
##進
##¹
##✅
##ک
##わ
##❗
##ů
##ž
##̇
##ż
##月
##至
##ğ
##为
##率
##业
##水
##點
##ز
##ص
##ق
##か
##き
##☀
##ئ
##🤷
##ж
##ð
##💎
##✨
##ً
##✌
##ட
##ை
##ம
##ு
##ற
##ச
##்
##ظ
##小
##看
##這
##事
##時
##ン
##入
##通
##道
##🌴
##🌟
##à
##目
##個
##城
##與
##前
##🇭
##🇨
##🇦
##ま
##👇
##ц
##💚
##خ
##🇸
##🦋
##🌻
##🐘
##±
##💖
##इ
##½
##ġ
##ń
##ē
##й
##ّ
##́
##👉
##æ
##🐻
##後
##增
##加
##δ
##🌸
##😢
##惠
##性
##©
##作
##如
##り
##能
##👶
##υ
##⅓
##ʼ
##п
##✔
##ض
##政
##報
##告
##指
##♣
##特
##量
##新
##😭
##🎤
##こ
##と
##を
##ʻ
##ℓ
##ष
##ण
##श
##ज
##ý
##г
##過
##重
##並
##他
##自
##投
##资
##ग
##ै
##受
##子
##華
##健
##康
##週
##合
##教
##다
##🇮
##🇹
##✪
##🤔
##志
##台
##所
##发
##等
##🤗
##℠
##λ
##內
##該
##場
##主
##相
##低
##家
##🏴
##⚽
##影
##就
##は
##의
##集
##團
##理
##地
##建
##都
##應
##に
##√
##❄
##車
##з
##本
##👊
##提
##關
##≥
##ř
##機
##保
##إ
##⚪
##в
##ध
##物
##府
##將
##供
##期
##動
##資
##支
##持
##誉
##面
##包
##³
##そ
##部
##位
##µ
##¤
##¸
##ï
##灣
##區
##😘
##🎊
##望
##β
##費
##国
##星
##民
##🇿
##💕
##🌹
##ू
##全
##來
##🎈
##名
##̈
##غ
##🇳
##👏
##英
##聞
##⃣
##γ
##💥
##¯
##î
##品
##科
##控
##原
##🔥
##☺
##長
##👧
##💃
##舞
##比
##🇪
##⭐
##ș
##😅
##ん
##💫
##ы
##🤣
##щ
##★
##⚾
##🍩
##¦
##研
##院
##🎶
##👩
##🎥
##💯
##이
##ち
##💋
##💜
##ω
##也
##好
##山
##園
##🇧
##─
##ś
##ά
##ν
##景
##花
##将
##ל
##務
##🤙
##產
##東
##宏
##還
##😒
##õ
##🙈
##☝
##🙄
##詞
##🐶
##要
##石
##¨
##ء
##博
##馆
##口
##ф
##ख
##κ
##ａ
##路
##ש
##ב
##式
##🦁
##த
##ல
##ர
##管
##😔
##被
##👀
##え
##ー
##🤘
##林
##😳
##💀
##🤶
##🎄
##θ
##ﬁ
##💘
##ə
##視
##🔵
##φ
##情
##▪
##ய
##வ
##客
##⚡
##超
##🌈
##π
##🕺
##館
##ę
##😜
##🤦
##🍺
##🇲
##度
##導
##₂
##ě
##🌭
##二
##✈
##🎂
##🏿
##🌺
##永
##😪
##張
##く
##🐰
##✭
##💔
##義
##制
##下
##þ
##这
##系
##習
##鴻
##🐝
##🐾
##例
##̂
##🚨
##ÿ
##💁
##工
##🇵
##正
##ذ
##¾
##ő
##😱
##外
##🍾
##￼
##じ
##ㅤ
##א
##ﬀ
##約
##ό
##⁰
##源
##💗
##ς
##➡
##ई
##果
##遠
##🏈
##☆
##📸
##❌
##ی
##उ
##王
##ி
##回
##х
##̶
##租
##陳
##东
##ன
##க
##ள
##但
##●
##经
##💞
##さ
##😎
##說
##🥇
##💍
##續
##→
##✞
##☕
##🏆
##😆
##👎
##☘
##あ
##認
##⅔
##模
##她
##許
##體
##😃
##📷
##😬
##্
##র
##শ
##ন
##⬇
##🎅
##元
##¬
##🎵
##李
##🍷
##🚀
##🇩
##͵
##繼
##📺
##ツ
##閱
##讀
##🌊
##极
##پ
##ﬂ
##😩
##朝
##賴
##✘
##🙂
##🚮
##🏀
##ম
##স
##ক
##🦄
##😣
##⠀
##ந
##ப
##黃
##哲
##😉
##港
##👋
##≤
##🥂
##ா
##📰
##🗽
##∆
##ⓢ
##ⓘ
##ⓐ
##🍻
##आ
##○
##ⓟ
##ⓛ
##🎟
##🇯
##►
##👅
##₹
##🔊
##♦
##🥤
##🗣
##😏
##✰
##ⓣ
##🍋
##吳
##↓
##÷
##■
##▶
th
##er
the
##in
##on
##en
##es
##or
##at
##ed
##nd
##ar
##ing
##an
in
to
##al
##it
##ou
of
##as
and
##is
##ic
##om
##re
##il
##ion
##ent
##el
##id
##et
##ay
##ec
##st
on
##ot
##le
st
##ac
for
##ur
##ow
##ut
wh
##ad
##ol
##ve
##am
##ig
re
pr
be
##ly
##ers
is
that
it
##ir
##ith
##ter
##th
##ation
with
##im
an
sh
al
as
##ch
##ver
##ill
he
at
##os
ch
##est
##ce
fr
com
was
con
##us
sa
ne
##op
ha
##ere
##igh
##ld
we
##ess
##em
##ag
##ul
tr
you
su
##ak
##ts
##od
##pp
##ear
##ain
said
##oc
##ate
##iv
are
##um
by
##ore
##un
ex
se
de
from
##and
20
##ect
##ity
##ies
this
##art
##ment
his
##ort
##if
or
have
cou
ac
pl
##ab
le
has
##ive
sp
not
go
##all
##ust
##ast
will
##se
##ight
##ist
ab
but
##ack
##ard
##ok
##ial
##ost
##ant
##ud
year
they
ad
##end
br
cl
##ie
pro
##ap
un
ar
##gh
new
wor
##ice
af
##ell
##day
##out
201
##ome
##ia
en
gr
##uc
off
can
up
all
##ip
mar
ag
out
who
##ich
res
comp
their
##ib
##our
##ik
rep
##ound
##ue
per
##ge
##her
more
##ans
inc
man
##ould
##tr
tw
##ong
do
##ough
im
##ions
after
##ide
##ine
##ame
me
us
cr
her
##age
##ated
exp
one
dr
had
##ail
mon
am
rec
been
##ally
tim
she
about
##ure
##ber
so
##ake
were
##ook
##ays
##so
##ous
##ind
##ace
##act
##ire
##ach
##ub
##ff
##own
fir
##ance
pe
##ence
which
also
##av
pol
there
over
sc
##ther
ev
int
##ord
part
##og
when
car
its
##ose
app
##iz
##ks
##ary
##orm
co
##00
##ile
##one
fe
te
##ond
acc
##pt
##ian
no
ind
##ign
##ree
##qu
coun
qu
##ents
dis
str
##ick
##oll
##ations
##ely
get
would
comm
##ike
if
##ish
##ass
ser
play
first
just
##ite
than
##aw
time
##ey
peop
what
ph
##ors
ro
people
two
##ning
##ase
##ens
some
em
our
bl
##able
##ov
inv
high
pre
sec
rel
your
##oin
bec
inter
work
##ket
pres
##oss
dec
cont
##ep
kn
##ict
##ct
how
other
any
##gr
##ition
last
imp
##ty
##ade
##ident
into
op
##ical
##nder
like
##reat
them
##ob
##ild
##amp
##form
##ings
my
##itt
back
may
##use
fl
##lic
ass
##ates
add
##ump
##ek
act
again
el
##ang
min
##ied
hel
par
##oy
fin
ever
him
##oun
##ult
##old
##ry
##ason
thr
##ock
show
10
##lud
sch
##ory
could
##are
most
##ove
##ink
##uct
##enc
report
##iss
##ater
##uring
now
##ood
##ues
##anc
att
##vel
ap
includ
##fer
reg
market
years
##urn
under
##ug
##man
bet
compan
##ational
don
cent
team
##ery
##ious
cons
##illion
##ities
##ause
##ool
##ft
while
state
bu
##als
##hing
##wn
##ement
day
des
##fore
ve
##we
look
offic
call
19
##ating
did
ear
serv
lead
down
news
##atch
invest
win
trump
week
three
only
through
##hn
##ton
##arg
need
before
gu
president
every
med
##vern
##ath
##bs
##ix
##cent
rem
##ward
##ah
supp
##aking
during
even
govern
2017
##ise
cour
def
##other
##ting
police
##ublic
##ased
prov
##land
##ited
##les
start
##ier
##oot
help
sm
nor
world
says
well
##ince
where
bus
say
because
end
dep
form
low
sy
being
##br
##air
game
##urr
against
make
poin
bel
##ected
##ph
##uch
##ash
then
prod
##cr
wr
##orts
##ily
##orn
contr
ret
##iel
mem
old
percent
see
##ro
##atur
month
home
##ank
##iew
fam
##son
cap
season
know
ed
##erson
company
stud
##ull
made
sou
##pl
long
##ual
these
city
##az
good
want
##io
bo
col
four
##oth
##ices
ter
##ert
##uss
school
many
##ife
ke
run
##xt
those
second
law
##istr
##ven
way
government
ins
war
2018
own
##oup
set
gen
gl
##ful
##ons
##ouse
##way
##hip
ann
take
going
group
##eric
inst
##cc
sign
around
should
##iness
countr
##irect
##au
##ollow
think
resp
since
dem
##eral
##ection
big
aut
##und
follow
000
direct
##ivers
phot
##alk
wom
cle
##ames
sl
very
30
##gan
americ
million
here
sur
12
night
loc
told
##ics
found
##earch
right
##ility
##ange
open
monday
15
post
ma
read
business
##its
##ield
##ific
##alth
##ments
##ording
##elf
##iver
##ra
##ital
##up
contin
north
##ee
del
##ets
##ope
trans
still
##ork
##ner
##olog
##ress
##ather
det
dif
id
mid
11
public
##per
including
##ible
##ene
bar
bre
according
##fl
##ives
stat
##ently
##nes
char
much
head
such
south
adv
##ott
child
commun
sal
national
support
##led
house
jo
##ative
##att
sen
eff
##ision
plan
##let
disc
##ms
##ether
care
happ
cor
top
##ween
both
next
##ered
star
inform
red
between
##ri
best
spec
##ble
face
##ular
wed
##ys
great
health
##velop
leg
iss
##iving
hand
##urs
court
person
##ior
progr
develop
put
ste
official
num
##ister
##iday
prop
val
shar
does
##omet
another
grow
##ave
far
##ina
##ime
##ency
##ont
tues
eng
tuesday
##med
stre
rele
##eng
##ric
##ley
opp
prot
conc
use
soc
air
##ists
ec
country
##ying
tec
family
sk
manag
##ved
##ants
vis
##ax
arr
##erg
##ief
miss
near
life
##0s
spe
though
real
fil
##ount
##oud
mor
##ern
##bers
camp
##res
av
##ights
har
conf
pass
incre
##ines
ob
##ving
sim
sw
met
##read
pat
sub
pow
##aff
prof
ask
five
14
curr
find
really
press
intern
##min
come
##ling
mil
information
200
##ced
former
left
photo
place
##ional
lot
cond
##der
##ever
ra
es
vide
wednes
wednesday
##enn
##crib
##ins
##ball
gre
##line
cal
rest
meet
##ird
white
2016
art
friday
somet
investig
##ral
got
la
##ember
exper
pay
prev
fire
##ren
mod
jun
##ised
sund
cre
##uck
rece
free
##ody
research
differ
18
fac
##ject
hal
wind
##ecut
##akes
requ
mus
##onom
##itter
same
##leg
##ually
##stem
##ale
##iting
mov
sunday
##ience
##ures
pos
share
13
oper
six
##ng
##tt
chr
##ele
sing
stand
##ote
system
keep
##view
polit
##ann
clear
##ead
coll
each
vict
##ages
satur
##uary
##osp
build
program
today
techn
##ained
fund
saturday
point
##iam
ll
russ
##ves
later
##ew
##ata
maj
##itch
##oad
used
##ends
cost
##uction
times
women
##ury
##str
feel
let
##osed
indust
##yp
eur
beh
auth
##arter
united
25
##ects
##ering
anal
too
##used
sol
##over
foot
john
few
turn
fri
##ished
called
net
inj
based
apr
17
however
16
county
media
perform
##ism
provid
road
main
poss
proc
secur
bas
mr
expl
video
fed
depart
##ize
march
chance
allow
kill
twitter
##ived
##ness
prom
quarter
univers
sever
econom
##ized
aff
##ued
power
est
sun
park
past
never
ris
##ute
major
record
number
##aim
event
##vers
##ety
##ately
hard
##ester
appear
subs
##ark
##augh
organ
pa
announ
days
won
local
##ittle
##ways
##ially
job
belie
produc
##red
west
vi
##app
service
hold
##ald
cloud
added
##gin
states
young
points
fact
little
test
took
##aining
ju
import
children
quest
april
reported
deal
attack
##book
distr
third
glob
things
##par
hour
author
better
##ague
##ains
games
##mm
##til
email
without
##ush
##unch
##te
##iven
jan
##pr
exc
##ution
cust
community
move
level
##gest
return
lik
watch
##ned
##ces
york
sn
##thing
area
partic
office
services
sus
water
away
##opp
something
##ient
##ention
line
##ats
didn
interest
party
case
list
##verage
came
##ology
lat
eas
data
making
full
saf
##lin
tax
ext
##oci
bank
mc
members
ca
##by
san
associ
##ony
##cept
thurs
acr
##ending
thursday
players
half
men
months
class
less
##side
50
super
trad
elect
june
##els
view
hist
##ted
coach
why
hum
##ipp
##ploy
across
american
happen
money
##ured
league
early
story
different
went
claim
fut
24
polic
##ically
department
sit
##ired
##ps
always
##ards
facebook
along
fur
sour
##ored
ir
following
##ready
champ
price
bill
already
statement
##aken
##ortun
ple
join
working
compet
security
pop
land
##ified
several
side
##eck
sent
final
##ille
special
might
step
until
black
impr
chang
canad
international
##rem
club
university
center
image
##ones
social
##ple
##ium
looking
##ator
consid
spok
dev
alleg
process
talk
equ
expected
minister
shot
morning
chief
##urch
pot
officials
enter
love
##co
hit
charg
custom
employ
susp
series
##hic
##ama
food
strong
jud
having
change
doc
viol
##ense
short
mostly
typ
billion
financ
seen
dav
able
##ison
##ians
mich
global
##ane
shoot
21
kore
##ission
##ended
complet
match
##aign
il
hosp
ref
among
##thers
##self
death
invol
ang
important
campaign
europe
##sh
##wh
small
ant
##oon
mat
##ought
further
committ
##ocr
give
opt
summ
general
ball
##lex
must
##bo
reach
live
director
avail
round
aug
key
sex
ge
dou
cloudy
growth
july
visit
subscrib
field
future
22
##be
mean
deb
var
div
##acy
##oming
inf
aust
asked
mom
design
street
tot
seem
##port
priv
addition
pet
##stand
industry
students
whether
lower
fun
##less
100
##ature
##ai
vol
port
close
##inal
try
##oved
proble
##ny
continue
##ville
fall
forward
##inc
conn
washing
htt
tog
targ
others
taken
lear
gir
activ
terr
china
##oor
book
succ
democr
yet
##ourn
hol
counc
recent
##utes
admin
##ances
##iff
companies
##ases
getting
##por
walk
##ees
##ators
foc
mot
execut
##atic
23
##aily
##itions
once
together
led
likely
##lier
##ru
##ham
ww
due
washington
40
lar
federal
least
opportun
previous
cert
highs
latest
##ensive
project
mark
access
lim
2015
reports
given
board
##ference
crit
success
stock
fight
ago
##ateg
##ret
available
tell
daily
##ising
order
ent
kind
##ged
##esh
taking
##ential
woman
##int
##iod
late
coming
christ
chall
##ival
qual
colle
##back
music
cam
vehic
development
republic
fail
cut
name
using
##gress
held
saying
##ten
##ler
cele
den
www
administr
political
bring
goal
india
rights
##ories
east
##ably
hom
financial
staff
meeting
repres
hot
started
period
hospital
tal
girl
upd
earlier
arrest
concern
ah
los
council
become
trav
agre
##ners
known
town
behind
pick
drug
analy
lows
host
##wards
hear
leaders
celebr
boy
brit
sure
##ids
reason
ident
larg
##go
break
decision
bit
##ults
doing
milit
oct
sug
##omm
##ences
gener
control
within
##ana
ide
uk
tur
##idence
profess
announced
cop
##itive
##umb
lab
##aft
gun
##tern
address
vir
hours
##uters
done
doesn
##ides
##ively
threat
arm
comes
sports
thing
wa
light
educ
non
capt
##ars
rul
##que
er
gold
##yn
ur
##sel
aw
policy
canc
##ech
##erc
##ows
##get
treat
shares
cho
##ench
spr
wee
target
america
enough
ban
discuss
##ands
online
front
room
##uce
##work
dead
tit
pub
election
investigation
occ
film
present
launch
##asing
building
##vert
##ared
total
lost
experience
current
##field
pract
mass
weeks
bur
related
buy
lo
bene
desp
expect
mph
jack
lib
seven
appr
fans
prem
mo
cup
##bert
fre
hope
##erv
##ided
pict
history
stay
trying
##ization
##ne
technology
dom
##rap
trade
outside
##ails
esp
check
question
played
mill
proper
provide
possible
released
mult
effect
mess
action
sales
cred
##idents
relations
vot
dam
deliver
##oke
result
rob
28
minutes
ger
##uel
football
init
broad
journ
capital
clos
sell
represent
loss
champions
##ients
include
alm
friends
human
donald
source
27
calif
##ex
##uation
base
stop
##ibut
29
eight
##ounds
##yr
26
##ape
partly
appro
average
env
oil
reuters
body
fav
despite
saw
term
##ugg
risk
tem
certain
##uk
benef
##lished
son
##off
january
victim
hu
energ
orig
course
phil
career
december
##thern
##ming
tre
##ift
believe
mag
##venue
che
##amed
recently
##rew
plans
##bi
russia
review
often
commission
rac
issue
31
##for
##lement
austral
understand
##aps
consum
district
large
##ger
quick
player
hon
secret
administration
green
##aged
medical
##sw
##ament
nation
playing
conference
position
killed
febr
arg
mur
david
contact
february
plac
rate
winds
##aker
##ability
##yle
##aster
enc
grand
##ode
release
thought
rich
college
congress
##ondon
track
fore
issues
thank
product
##igr
infl
tom
emerg
bad
##pper
##yl
##af
increase
squ
##ds
fell
di
below
##ron
suggest
applic
##oring
hop
##iety
almost
senior
august
london
makes
committee
webs
wanted
bow
##ograp
leader
##elt
cook
everyone
energy
space
respond
tour
##ael
personal
aud
summer
##idge
respons
management
##ams
products
demand
cover
account
chair
##ots
sel
link
pack
military
##ford
##ender
nearly
study
pen
korea
ahead
needs
performance
##akers
unc
##under
assist
je
advert
dig
199
focus
heart
const
twe
offer
##iron
shows
cann
central
afric
role
creat
particular
officer
begin
ey
mal
35
rad
sept
##ination
tv
##ault
fig
crim
officers
imm
weekend
comment
##uty
region
suff
ens
adm
member
james
##ma
higher
##empt
express
spokes
##medi
##isc
##dle
##ibility
##wood
card
wrote
##ivid
single
##ither
pan
##iter
angel
economic
strateg
cand
confir
currently
neg
page
##ett
shooting
environ
received
tor
canada
mother
##ney
age
hill
##ample
mater
##orms
famil
reve
someone
##ulation
signific
##ify
##yc
executive
everything
means
##uf
hun
ep
repl
died
bab
##ilar
safety
interview
##eal
site
reb
##ox
##joy
californ
pal
##ba
soon
##orney
conv
##nings
improve
##lish
##irc
manager
##pm
individ
##ips
attorney
##iger
impact
2014
running
teams
friend
agency
thunder
##itting
##aper
##ined
##ico
actually
amaz
prob
potential
website
couple
pain
foreign
sil
private
block
race
##ara
showers
sold
legal
mad
##ipt
push
indian
california
500
##oph
authorities
comb
enjoy
countries
environment
alleged
intr
results
justice
leading
production
compl
##bc
bud
bal
phone
protest
insp
immedi
fourth
##rupt
##ession
##ument
instit
anything
##den
events
##attle
sunny
ce
investment
brand
significant
education
william
meas
circ
inside
##mp
geor
moment
rain
matter
##ength
##ona
training
areas
fair
wasn
##imate
serious
rev
deep
60
england
##orr
travel
winning
began
bir
45
wall
##body
##epend
judge
espec
##ried
type
especially
##ober
michael
associated
subscribe
cult
independ
corpor
##fic
##selves
value
nothing
##lear
force
leave
please
gar
involved
##iple
incident
extr
##opped
##ural
00
describ
##atures
search
evening
gave
request
needed
##ij
##yan
himself
cross
dan
works
customers
mind
sect
instead
october
aftern
tick
deter
analyst
material
scre
similar
opportunity
pros
alth
##ops
reveal
seek
afternoon
alex
##uit
##ening
isn
although
particip
dog
thom
german
union
annual
wild
file
diffic
russian
##ilities
reser
click
recomm
ok
anyone
via
problem
draw
vers
centre
##cement
ver
sched
https
mart
##iec
lives
relationship
parents
range
fly
cit
ord
island
scored
##ogn
##ental
##eter
paul
contract
tex
mac
father
##anch
##aughter
heav
touch
drive
##bur
property
rock
journal
ground
##uff
ham
##ades
convers
##ule
upper
mob
prime
##ises
202
vehicle
groups
artic
##ighb
middle
neighb
award
kim
brown
living
##la
cur
##ufact
hall
manufact
wife
##istan
##tain
worth
##of
##omb
doll
create
pret
content
##fully
analys
prices
happened
terms
happy
candid
matt
beat
thunderst
european
network
log
workers
credit
##ocks
rose
church
approach
biggest
self
date
##ady
phys
fest
abs
song
driving
forec
kids
intell
residents
laws
##itted
firm
##itor
ton
##apan
syr
wel
pur
pull
##aging
charl
civ
##isl
worked
##aur
above
constr
wood
##bed
##ude
##ask
whole
##eth
##ena
challeng
arrested
box
nine
vill
protect
wal
##cast
partners
bat
##na
prior
consider
##cript
##vey
trust
published
##ago
showed
tweet
difficult
growing
sup
clin
##mar
leav
##ram
starting
ul
##ston
japan
prim
##hold
##atives
##ruct
changes
cash
bay
thunderstorms
32
purch
pitch
violence
king
##ein
bea
situation
store
additional
revenue
entire
legisl
goals
stra
schools
camer
provided
##ores
prepar
##han
else
attempt
##aught
dist
anim
indic
surpr
regul
##itness
respect
wants
quality
traff
images
##sc
gas
70
##ino
ach
##gn
##lus
increasing
spot
oh
jobs
sexual
ben
##ca
rather
september
angeles
niger
questions
pred
##ecess
victory
roll
whose
##ements
either
stage
##action
##ograph
##hood
takes
oppos
title
remain
analysis
corn
conduct
common
details
answ
ready
plat
anti
hous
flor
became
vo
strugg
recogn
##oo
##ugh
vote
true
directly
##ilt
##onse
specific
speed
rs
markets
proj
popular
mer
charges
33
championship
dest
##anger
swe
fast
accept
##ida
regular
##ica
scene
response
pressure
engine
includes
hy
suprem
economy
##mber
blue
guard
british
autom
lif
ont
mel
2013
investors
advertis
##arr
sat
bi
trial
ath
##aring
terror
inn
hus
probably
##me
displ
farm
cannot
posted
continued
pic
nove
helped
november
becoming
accused
republican
idea
defense
minist
tab
largest
turned
##owd
sand
safe
secretary
comments
heard
##ha
included
amb
attr
##come
god
##utions
roy
refer
##imes
##room
industr
shared
deg
cast
driver
##ster
civil
ful
##band
smith
brought
sam
student
##estern
weather
prosecut
throughout
rout
##uclear
themselves
pretty
straight
mcc
opening
##ened
##enced
aim
recover
fif
paid
thous
##ya
chic
injury
cancer
regard
##wor
evidence
##iers
natur
longer
##atory
various
cell
seg
36
achie
mount
model
cause
restaur
updates
station
teach
families
##itten
users
acqu
##oid
##ceed
doct
soft
allowed
intellig
goog
##nn
##dr
##reg
hands
moving
alb
charged
communic
unl
huge
conditions
overall
tradition
scott
smart
costs
##acter
runs
texas
piec
sett
gall
remains
resour
daughter
decided
##vin
bord
jones
advis
efforts
pac
example
coast
spent
estab
nfl
disp
insur
##ites
exist
rid
198
unf
fear
extrem
robert
association
##ung
citiz
picture
norm
34
learn
felt
##ole
giving
perf
##inese
bey
scr
##down
river
nuclear
immediately
peace
treatment
speak
spring
amount
##uries
introd
assault
lou
australia
##ume
poll
require
90
rom
##ills
google
ill
issued
easy
progress
tourn
quite
snow
chinese
sher
cases
##oper
reporting
practice
charge
##ari
platform
sport
ways
##isions
hur
forecast
sem
lake
french
ital
simp
##da
expand
mix
increased
problems
seems
##olf
getty
franc
##ibuted
##rect
prison
kick
adding
color
##rael
##arm
##ique
mis
crash
register
bott
##lam
exch
wrong
lack
http
looks
finally
employees
text
budget
beach
pm
##ky
ceo
##onto
separ
tough
##ci
80
israel
pair
carry
transport
agreement
ms
tried
johnson
immigr
article
weap
calls
turk
income
las
##ware
bull
bowl
##istic
mike
favor
##where
ensure
##anta
bed
businesses
effort
obs
75
enfor
sale
raised
virgin
ten
copyr
mex
toronto
##enge
crime
senate
birth
##ota
extra
athlet
advertisement
quickly
rank
##mer
nom
created
goes
injured
previously
copyright
que
##ging
ther
discover
ended
##ension
original
double
constit
clean
70s
closed
ut
feb
rap
fill
retail
movie
conserv
estim
failed
##hib
ber
chicago
band
rates
doub
digital
sens
revealed
partner
appeared
##kn
##uth
##xim
2012
rat
blood
basket
##uments
named
slow
patients
multiple
gard
coverage
##icted
receive
defin
et
rh
competition
knew
veg
tele
ran
finish
opened
sle
sector
grad
wond
##uing
catch
experi
##rel
society
##encies
mu
##stein
dise
rise
complete
stories
encour
cas
claims
strength
promot
trip
draft
##ream
division
positive
size
arch
rules
continues
murder
looked
concerns
condition
fem
chris
##uced
signed
connect
followed
systems
##ki
histor
##box
##fort
remember
husband
counter
mic
critic
prevent
ol
cities
intelligence
##osh
decl
window
gets
perfect
baby
challenge
florida
li
fresh
organization
fa
necess
##opping
forces
apart
limited
##ding
confirmed
talks
##iant
features
van
##ipped
pak
compared
##ke
##berg
55
##west
victims
tournament
canadian
sense
##east
bond
western
entr
message
eu
france
missing
moved
hund
##my
lawy
festival
thousands
mobile
##ective
mach
carol
37
surv
##load
bag
esc
jeff
veter
medic
built
eg
##ounts
emergency
##eless
governor
fbi
jump
hundred
overs
hearing
apple
attention
recommend
wil
democratic
note
rating
ps
injuries
electric
chairman
##elling
numbers
##iction
beyond
index
din
grant
premier
maybe
cris
natural
ice
wide
charlott
##ider
penal
reached
41
##aming
##inated
conversation
cars
described
levels
38
##inks
fix
eag
##ese
und
iran
gone
influ
##light
thanks
##ris
##ification
nas
sound
##oti
resol
words
construction
traffic
pers
jackson
simply
plus
trib
born
ability
regional
criminal
##enty
po
williams
##ban
ic
projects
##time
behav
save
##hi
count
disapp
schedul
##izing
vegas
witness
ryan
##ges
minute
fort
fat
feet
##overs
door
##ires
yes
offers
storm
tel
operations
virginia
homes
southern
pakistan
girls
vice
letter
northern
obama
speaking
danger
professional
opportunities
49
##chester
george
kar
required
fox
heavy
##une
talking
der
ele
amazon
##ction
vehicles
##20
##ado
carr
##ems
acad
character
##essed
##ze
towards
cat
americans
##oint
##iet
owners
valley
##anced
frank
brok
##night
finished
analysts
##while
##onstr
brief
lang
korean
lt
##ews
##iance
##com
44
cab
##eed
sometimes
africa
claimed
playoff
crowd
leaving
##ga
mos
propos
tenn
##icip
guys
exact
##astic
funding
profit
baseball
subst
itself
winner
ess
##eat
battle
basis
avoid
flow
od
academ
brother
48
##iring
##airs
planning
thomas
attend
##eline
cool
hotel
##itz
##apped
princ
##unt
oly
##agram
display
##orter
flag
guy
spokesman
launched
##emb
louis
highest
bost
ny
suspect
unit
##arily
nav
poor
couldn
initi
##acts
obv
##coming
commerc
spir
funds
score
agreed
particularly
ministry
motor
calling
olymp
##eated
##ring
surr
197
radio
obvious
steve
jose
300
leadership
meth
lu
39
science
kept
options
islam
lic
##oes
##itation
perm
allegations
die
##ocked
britain
instagram
slight
parl
individual
border
##ette
stad
scient
eye
majority
##lim
##ibly
trail
42
shut
ram
refl
train
##uses
contest
tech
jim
internet
##vent
tonight
resources
floor
style
impress
francis
##igan
##lined
youth
stars
figure
##estic
##ario
boston
foundation
provides
complain
miles
choice
enforcement
chann
independent
filed
opin
replac
tool
caused
##ocket
patr
send
sources
spending
commercial
considered
noted
basketball
opposition
##ala
mention
commit
negoti
##ander
spoke
exchange
##ters
activities
stadium
wish
telev
web
subm
parts
##using
52
##hen
rally
##tim
breaking
mont
insurance
hack
seeking
owner
org
trading
##imb
passed
boost
jon
offered
illeg
photos
emb
adj
changed
document
65
##phone
bid
meanwhile
resc
helping
##ef
supply
winter
earnings
restr
scheduled
application
parliam
crisis
consult
yards
atl
drink
fifth
sust
primary
seeing
mayor
joined
talent
fish
##going
plant
served
43
debt
reading
path
drivers
51
appeal
tickets
struct
eth
##he
##aries
wat
decades
crew
parliament
andrew
toward
army
forced
burn
##hl
kid
ros
fully
##kin
mexico
politics
teen
cooper
dark
offering
##egr
vac
nba
organiz
holding
memor
##cription
designed
table
certainly
germany
chem
##eller
gather
restaurant
2011
champion
##ani
minor
square
identified
disease
citizens
fine
##mas
upon
location
sad
##hol
asia
sar
prec
##za
##onic
fal
culture
##lor
passeng
##rop
##oving
presidential
mary
cold
deputy
##wide
resident
##ously
defend
jul
heat
##iles
weight
emot
beginning
##set
communities
transfer
##ancy
doz
mir
martin
temper
##ero
epis
wait
innov
speech
fash
perh
records
perhaps
bomb
##oe
demonstr
anth
##uals
appar
uns
##makers
boys
lay
alone
##oles
infr
planned
advant
raise
haven
##pool
protection
##ania
fan
stocks
hou
drugs
democrats
implement
beg
drop
reserved
integr
##lines
##owing
##sen
kel
nick
##omp
pip
46
##lywood
paper
housing
##gers
reality
##inary
##oom
feed
correct
##iled
benefits
##ola
sheriff
pad
attract
successful
cookies
tow
strik
pun
standard
hundreds
comfort
feature
complex
broadcast
parties
serve
99
##icks
manchester
fle
eventually
##ici
##ustr
jail
##iful
devices
sud
rod
lee
fashion
##entially
ariz
degree
status
debut
believed
operating
answer
modern
47
rising
equip
providing
##men
asking
golf
##oval
reporters
##wr
attacks
##abor
version
spread
##ili
returned
mental
##elled
experts
penn
##ez
survey
session
voice
segment
##inger
traditional
##edy
word
african
exam
royal
vs
simple
purp
joe
supreme
weapons
sites
decisions
inbox
##ledge
banks
##tress
benefit
guest
killing
richard
caught
programs
ones
subscribing
fired
paris
sym
researchers
earth
haw
domestic
wouldn
corner
television
bench
coal
guil
written
activity
republicans
##amb
showing
liver
err
piece
era
adop
aren
professor
critical
losing
ren
relig
tack
luck
54
except
afford
female
##ansas
labor
ped
surg
technolog
achieve
spl
christmas
nature
wonder
places
physical
proposed
bell
resign
determin
explained
elections
strategy
##zz
tay
beaut
hor
damage
##mon
##kins
mission
plays
authority
movement
feeling
screen
linked
##town
##ifying
fighting
peter
##oul
divers
ty
shop
arrived
strike
airport
rang
equipment
writing
owned
corporation
section
91
##alid
gives
keeping
missed
detail
categ
##itely
asp
active
##works
facing
syria
##veland
starts
challenges
spend
learning
57
option
consumer
##bit
nov
ded
entertain
install
thinking
putting
mun
##ructure
freed
items
##etic
cleveland
mist
cere
rail
##acher
population
subject
steel
infrast
jr
fuel
prince
abuse
yester
scot
committed
row
reportedly
##house
greater
sleep
##sequ
guilty
healthy
reform
core
load
##ta
langu
196
golden
gm
located
##aud
ash
assemb
approved
##iest
##ucks
responsible
##well
jord
##ounded
barr
##uter
scen
53
##ption
nations
finance
collect
yesterday
pacific
trou
daniel
dollar
##aded
sav
placed
##eman
carolina
consist
origin
bob
##unte
##gl
2010
discl
sea
hair
##erate
imag
dropped
kr
beautiful
customer
volunte
holiday
flood
completely
houston
appears
pu
dism
device
bul
dub
##adel
theat
operation
joint
surf
camera
quarterback
pin
welcome
reasons
zone
update
massive
meant
highly
rule
sides
hopes
##essions
suffered
album
marketing
gal
cyc
##any
cry
56
actions
##oma
flight
dar
believes
usa
##iami
editing
ven
proud
gh
code
advantage
gov
seat
method
tar
infrastructure
os
capac
##aine
industrial
glass
parent
individuals
focused
altern
responsibility
videos
policies
nigeria
candidate
64
##irt
##ground
dip
actor
bol
ohio
kevin
reduce
whe
£1
##ctions
advoc
defence
unique
minim
hits
##esville
sort
ltd
ken
brook
neighbor
memo
favour
dun
prosp
##iced
developed
##roy
notice
##cing
absol
awards
penalty
nice
##ushing
confidence
stuff
exactly
facility
measures
##asts
meaning
##ada
58
du
ow
domin
seed
##onn
estate
##oster
wid
ire
ii
59
invalid
##agn
##athan
knows
selling
##outh
expert
newsp
##ruption
accident
##isation
gallery
##fri
ly
incred
arizona
miami
effective
usually
spons
shel
affected
mand
australian
corp
muse
micr
##50
chap
bridge
agent
##rid
normal
##ersey
watching
##ev
standing
exerc
purchase
gain
##anda
##apt
definitely
outl
admitted
##ano
lose
appre
shots
72
allegedly
purs
##instein
##adelph
caption
braz
wearing
philadelph
##orrow
jer
kh
scoring
yield
truck
tro
actress
philadelphia
channel
##dy
skills
##mine
institute
software
az
climate
abc
jordan
jam
fit
##onald
occurr
michigan
myself
explos
tight
partnership
lines
clearly
photograph
pil
##aves
##ka
existing
eastern
hasn
##oz
measure
##eration
##ointed
mail
assistant
difference
patri
squad
##aj
turkey
60s
finding
400
assets
pit
66
necessary
2019
documents
shown
arab
tm
rene
##cl
recall
suit
loved
solutions
guid
josh
cru
defensive
occas
narr
hind
##sea
rand
twice
##gu
concerned
##30
estimated
statements
user
assess
museum
marc
ongoing
francisco
mort
spirit
solid
immigration
responded
warning
object
##tery
english
##ych
managed
90s
charlottesville
##care
facilities
exhib
capacity
denied
village
completed
kil
bottom
select
figures
excited
amazing
brain
boss
struck
studies
seasons
##fc
profile
##asc
environmental
##ita
##icated
##mark
creating
applications
broke
agree
factors
generation
dream
freedom
##iar
##inn
vent
lady
##inals
surgery
accounts
dress
##rey
christian
##burg
cbs
singer
oak
proceed
voters
older
##vant
##hs
waiting
##ibution
##ivity
ireland
##erve
download
##tch
stated
##ym
stopped
##ula
decade
sister
controvers
establish
bringing
entertainment
editor
coff
##ador
doctor
master
walking
lawmakers
fellow
columb
southeast
eyes
worst
supporters
collection
century
batt
##iny
seconds
alco
taylor
alab
brad
ell
ign
liverpool
manufacturing
##nel
retire
setting
audience
apply
migr
##roit
gian
wins
confident
sac
ruling
faces
##uke
sor
##friend
luc
##bor
##cer
signs
equal
##ini
dollars
##pped
prepared
##ront
##rant
agencies
corporate
##dt
initial
upcoming
61
##mony
dangerous
span
views
alcohol
limit
warm
##mond
##ictions
amid
dad
victor
earned
##ube
obviously
##ounding
##wise
manufactur
changing
blog
sky
inch
detroit
eat
skin
50s
##ulated
names
testing
investigators
collabor
divid
trend
regarding
episode
pool
interesting
##more
##gar
expressed
learned
stake
produced
willing
davis
brazil
##eme
plenty
solution
arts
carl
warned
carried
mah
helps
##outs
mueller
##iment
grab
##atively
feels
##tered
emp
tweeted
##put
aware
eric
steps
onto
loan
hate
##osure
##ansion
electron
alabama
adjust
fant
candidates
truth
moore
separate
gradu
##iling
ring
jersey
illegal
80s
interested
##oman
armed
hers
powerful
stretch
##tained
knowledge
ordered
##icians
rush
muslim
##ois
offensive
cath
##bridge
04
contain
receiving
hat
##eness
pulled
captain
##izes
01
yourself
balance
advance
rough
##pts
whate
connection
whatever
happens
eagles
lawyer
weinstein
artist
allows
rum
appl
declined
##bury
bright
memorial
edge
horr
aid
##onents
favorite
##aces
competitive
##ship
language
##igg
##ios
produce
76
bang
legislation
pray
computer
extremely
jew
chel
male
announcement
animal
italy
##ological
77
consumers
cy
presented
##burgh
##ali
hurt
##ae
avenue
millions
seemed
cub
appreci
##antic
controll
campus
developing
privacy
##bon
recru
spect
psych
67
writer
stan
repeated
allowing
recorded
dut
lock
##illed
rub
bod
standards
covered
suppl
appearance
##board
##enses
contribut
province
lov
##omes
##har
85
dur
##wa
notes
liber
chemical
assembly
buying
71
##win
considering
##uge
##anne
##riate
62
clients
organizations
74
confl
mountain
##izz
affect
2008
labour
technologies
bail
matth
adam
prefer
choose
junior
suggested
stores
kenn
affairs
lawsuit
resist
santa
##aked
paying
faced
capit
route
remaining
sessions
hollywood
alongside
68
##ghan
##riage
saud
##utional
conservative
transform
anticip
involving
honor
##eg
frequ
cham
teachers
enh
everybody
forest
founder
prep
fis
##icious
exclus
opinion
remind
famous
##fol
panel
##ockey
##know
switch
##bl
##iju
ship
##mates
pictures
books
silver
##holders
garden
drag
driven
delivery
##ours
##oola
##arks
##ien
##iana
larger
independence
pregn
cow
##ocol
##ancing
doctors
georg
##arters
##market
cancel
kent
##gb
##olic
telling
advice
##ho
##ils
classic
acting
scale
acknow
newspaper
kl
innings
wheel
destroy
tag
cnn
excell
franch
##umn
visitors
lew
taboola
wear
##ella
##arant
liter
fields
roads
presence
journey
sitting
##ipping
renew
##ati
2009
bigger
picked
##ears
ratings
parking
flynn
understanding
counsel
direction
dance
prize
brex
cav
secure
cos
##icide
dall
circum
highway
neighborhood
rescue
task
justin
##itar
pace
##encing
surprise
whom
##ijuana
stephen
##bing
treas
rog
agric
treated
serving
highlight
listen
lin
hurr
##ura
ontario
ak
delivered
failure
established
##onym
advanced
dipl
bird
inning
69
ride
risks
streets
libr
snap
delay
princip
returns
occurred
happening
stick
cabin
##ato
brew
commitment
bon
##awn
##ortion
tru
##eas
healthcare
miller
faith
##woman
easily
ecl
variety
optim
celebrate
remained
fer
none
bure
patient
##aced
##craft
agricult
dismiss
hoping
grew
rej
conflict
guarant
tun
##utely
shock
transpar
##others
margin
73
ray
ultim
95
marijuana
posts
materials
swim
brian
ticket
##olution
closer
animals
condem
combined
elected
tap
##cel
refuge
ira
removed
broken
##erties
supported
doubt
uber
##icient
lived
yell
warri
##imin
brexit
##person
programme
communications
sustain
positions
finals
scotland
frame
moon
##dom
##ower
##quir
coord
kelly
matches
tells
downtown
##bre
lane
delhi
hell
hang
nut
technical
##acks
deaths
##istics
entered
bought
expectations
##uj
##agues
confirm
ceremony
ho
stress
industries
dallas
schedule
vision
sample
recovery
sanctions
virt
##ko
dogs
sixth
sid
oce
##antly
midnight
initially
iv
harass
63
magaz
unp
proposal
corruption
conducted
prosecutors
wire
introduced
wing
##ua
diagn
sweet
behavior
##icket
##unk
astr
##loy
approxim
##awa
length
##ican
wake
units
taxes
##atured
discovered
##sa
##10
600
sought
800
84
dyn
coffee
contributed
commissioner
crown
pharm
##ables
tests
jason
academy
##itors
##apol
unfortun
herself
wer
print
mentioned
bbc
kansas
bear
bann
approp
saudi
influence
determined
##sp
approximately
islamic
apolog
lind
jay
##head
experienced
##itude
listed
chelsea
##hire
arena
yard
tast
adults
hitting
clinton
seattle
religious
ford
colorado
solar
##ulate
effects
enable
identify
circumst
agents
sharing
jac
machine
bath
tra
termin
shortly
dod
accur
teacher
ml
reserve
naz
minnes
chain
greg
uses
prompt
dinner
alt
expansion
joy
native
ultimately
breat
fel
##standing
throw
closing
##urning
austin
##fe
ox
attended
##inson
flat
nearby
##oses
tend
weekly
hen
absolutely
smaller
concert
swift
signing
beij
##flix
theatre
bern
farmers
##ighter
beijing
sharp
diplom
falling
bor
##reek
150
spark
negative
harry
frustr
write
defeat
##oms
giants
##lah
premium
anthony
supporting
hockey
ble
trends
aggress
married
decide
##hab
purpose
familiar
netflix
potentially
friendly
investigating
rapid
zeal
ideas
improved
surve
featured
##iding
minnesota
pra
ga
conclud
giant
##abilities
78
younger
feat
regions
##elle
obser
wedding
deals
values
maxim
gross
shif
fraud
films
compr
inflation
##oned
employee
turning
iraq
arms
veteran
supposed
barb
rug
transportation
truly
meetings
calc
types
##ashed
buff
weak
worse
proced
debate
occup
rein
goods
publicly
##dp
declared
jess
approval
metro
wine
##iat
tied
mol
##lad
moments
tools
locations
originally
largely
##sey
max
clark
##illing
fol
deploy
rare
tmr
determine
##iy
tens
honest
laugh
##ooth
false
quot
remove
possession
88
raw
outd
##usion
lad
##porary
86
##auk
therefore
##gs
##erous
easier
##actions
scal
soccer
na
kat
##de
voted
map
rural
##lands
aircraft
seriously
marriage
##ties
command
syrian
heading
slightly
italian
relevant
exercise
##eland
ranked
bills
ko
moves
franchise
##isted
hills
basic
##issions
##rett
sudden
newslet
compar
##ented
inspired
albert
##ih
kitch
arsen
volume
jury
urged
beauty
drama
mosc
soph
circumstances
05
02
mut
branch
vul
georgia
returning
##aham
summit
##place
##resp
firms
cuts
anton
strategic
##ns
##owed
atlanta
dram
missile
##icing
chances
spain
properties
unless
enterpr
stun
py
artists
##akh
tony
actual
mp
withdr
##ertain
portfol
clar
fake
scheme
owns
skip
ip
tenness
nic
models
otherwise
retired
equity
threats
apparently
##azz
##enda
reporter
songs
mile
upgr
firef
walked
##iation
scientists
hay
medicine
gon
##ias
tower
anonym
registered
profession
palest
zealand
carrying
yout
immediate
##ivals
sacr
##lig
flu
identity
brings
touchdown
warrant
crimes
##rd
appoint
senator
dividend
bron
zero
lit
armen
math
cards
putin
moscow
charity
marsh
talked
08
stands
extended
jur
leads
##ilton
diam
gang
ross
rick
southwest
prove
likes
##real
##rees
currency
directed
bes
assum
##ington
fab
2007
##aph
filled
handed
custody
ott
charles
brands
97
##oft
lots
06
##ucing
belong
library
pounds
lux
##estyle
duty
joseph
eld
morgan
##erce
om
japanese
producer
till
stone
evac
motion
factor
##illy
crack
refused
harm
creative
structure
fitch
##icts
backed
acquis
rival
regulations
internal
##ius
stor
expensive
scand
##apore
unable
##ighth
ambass
headed
abd
passengers
kir
replace
discussion
perman
stab
tie
asset
##otted
continuing
urban
lewis
tomorrow
drew
patriots
magazine
relative
pap
ye
congressional
shopping
misc
lob
maintain
ends
ending
involve
##ipse
jong
##ulf
birthday
diego
##enders
singapore
##ck
violent
##achel
gop
entry
warriors
relief
suspended
passion
82
shape
##aukee
incor
fees
utah
expects
musical
payment
##greg
eval
adds
wilson
disney
##elines
percentage
busy
rook
racing
attempted
denver
##season
worry
weigh
historic
merc
##mo
territ
engineering
##agon
eclipse
liberal
terrorism
nbc
##alf
queen
numerous
manage
irish
##fit
tree
analyt
ba
youtube
raising
milw
olympic
patrick
element
practices
79
macron
##taining
kitchen
##isf
buildings
ties
wealth
connected
##40
##areness
grade
sevent
beer
##coin
embr
83
waste
uncertain
thumb
investments
swed
##ompl
pushed
##ogan
multi
apartment
dynam
passing
##gen
##otten
##aling
awareness
reduced
ingr
interests
##daq
initiative
studio
2000
va
bh
##iber
##iable
democrat
milwaukee
mech
pointed
representative
tennessee
targets
eating
adviser
nasdaq
bj
tan
liqu
exciting
phase
manufacturers
employment
stood
discussed
thread
mcd
lawyers
pod
veterans
##fall
speaker
##igned
transition
fisc
bitcoin
split
lag
stol
scor
pitts
possibility
ocean
securities
bound
consecut
visited
comfortable
holds
sentence
assistance
##iser
protesters
northwest
handle
alternative
lie
nin
87
informed
arsenal
92
minimum
wars
typically
guests
increasingly
matters
81
2020
specifically
amend
ruled
winners
consequ
emph
##ophy
da
payments
participants
##osing
holdings
cultural
commerce
shift
offense
arrang
essential
quiet
consecutive
motiv
emotional
07
volat
auto
generally
comedy
ward
instr
##iqu
indeed
messages
util
orange
suffering
instruct
retirement
shr
earn
##apolis
cambridge
trouble
impressive
##lights
recip
therap
nash
##lusion
gift
counts
##amm
pocket
sir
function
salt
midfield
iphone
wrest
##iffs
targeted
jav
seats
##away
##oney
cruc
##roid
illin
40s
aver
syn
greatest
playoffs
tackle
alert
sick
##wan
portfolio
##atically
250
plane
mitch
weren
reflect
##ading
dedicated
forg
##pping
heads
spokesperson
mechan
##ints
semi
singh
##lo
pump
monit
becomes
category
##esa
worldwide
boat
loans
##onent
lam
requires
rebounds
joining
##uations
acknowled
constitution
losses
lunch
##eted
athletes
93
##gry
##ova
footage
dry
vulner
resolution
##weight
nhl
reven
complic
kur
##inations
client
requirements
possibly
struggling
##acters
jenn
madrid
##enez
characters
landsc
##aze
##lying
ment
fiscal
forget
dozens
bureau
##oking
severe
sees
incredible
alive
institutions
illinois
leaves
causing
##11
monthly
performing
ukr
plastic
89
raj
registr
cells
oklah
wisc
movies
watched
##aron
imagine
ambassador
adult
##ality
##60
ru
storage
lyn
persp
mrs
representatives
tall
gay
begins
cabinet
rot
03
decre
turkish
memory
##uted
affordable
hart
##itals
##isa
hero
votes
sorry
##otic
##tm
pipeline
uc
background
orders
spanish
wales
##reh
selected
##va
##ries
bodies
lions
oklahoma
hole
stolen
household
##odes
##iders
unkn
afghan
suggests
scar
tes
thus
knee
diamond
sets
elig
khan
neither
soldiers
importance
complaint
deadline
subsid
##ulations
featuring
gender
protests
##icial
criticism
assists
legend
governments
edition
discr
performed
##abled
enjoyed
harassment
harris
aimed
palestin
colleagues
coalition
rugby
##oen
pieces
coaches
2006
afp
fee
falls
rocket
pittsburgh
##azy
aged
capitol
rent
managing
coc
##aks
excellent
android
decline
plants
clash
sarah
viewers
##onsin
guide
tips
outstanding
surrounding
turns
##ypt
dj
##boy
195
wisconsin
accus
threatened
behavi
prepare
##erts
gap
compete
spokeswoman
##ucky
resort
compens
##pe
chick
convicted
##equ
relatively
explain
surface
promote
package
##uts
bloom
unknown
annivers
clubs
adopt
concept
banking
updated
dish
visiting
cutting
appointed
##mad
harv
nca
worried
##anna
##ibute
seventh
##ll
flo
transparency
walker
loy
##aped
anc
##uma
temperatures
reply
##inent
selection
##utical
magn
sentenced
nar
##road
pilot
significantly
threatening
##abe
pushing
grown
##pa
hey
maria
##ogue
jen
mode
rookie
##val
##born
##hr
license
##onduct
communication
drove
andre
94
archit
fc
waters
crore
estimates
traded
moham
lifestyle
controlled
inquir
revers
suicide
##cher
##empts
enr
newly
##research
fisher
gear
distribution
suspected
newsletter
negotiations
##iences
asian
vanc
smoke
dozen
windows
emphas
doors
intent
historical
headqu
granted
diss
findings
ta
craft
##apping
experiences
hopefully
philipp
houses
##celona
##agement
##ouver
evans
bom
##dd
allen
apps
deadly
nurs
metal
attempts
detect
interst
dealing
anniversary
##och
passenger
voting
increases
barcelona
##fast
politicians
dial
closely
nyse
vancouver
##news
guess
atm
lev
bush
classes
##ensus
appropriate
error
ups
battery
rivers
sean
fundament
intended
hong
##rian
spin
compreh
cloth
##illa
brothers
supremac
sr
founded
##era
innovation
react
aside
occasion
iron
gains
##edge
lineup
bike
catholic
nobody
##ikes
##15
cart
ali
personnel
unfortunately
distance
embed
punch
ncaa
journalists
knowing
horse
ts
northeast
cannab
##word
##illance
tamp
aaron
jonathan
##life
##usal
faster
##vis
satisf
behalf
surveillance
oreg
publish
##alo
etc
nik
stronger
sugar
hud
micros
hospitals
oregon
flying
##esy
##ulty
ads
sounds
##stone
inspect
cricket
venez
##etr
##tv
##ched
conte
withdraw
nam
struggle
ka
##icane
argued
anderson
hurricane
lucky
cha
##ician
overnight
belief
emerging
surprised
tip
##zy
gym
venezuel
egypt
celebration
advertising
llc
pul
highlights
acts
##pro
speaks
surprising
lights
agenda
fatal
follows
mine
thumbn
provinc
hunt
barrel
promise
mas
worker
##wart
pleas
##cy
municip
mall
priority
stream
pictured
widely
##inity
encourage
##icop
pier
crude
##stream
advent
##oked
engaged
israeli
##water
accepted
promotion
sending
dave
forum
carbon
syd
wave
repeatedly
##pton
##ylv
96
firefight
yellow
harvey
##aire
alliance
##wich
pattern
aer
2005
upset
##eds
kyle
directors
thinks
probe
provincial
accompl
depend
##shire
##ining
incidents
announce
##haw
restaurants
permanent
critics
coordin
##lyn
marks
09
plate
clock
readers
unlik
thoughts
detailed
troops
officially
som
vital
passes
brady
roughly
##pass
redistr
shirt
hosted
osc
residential
roof
improving
kong
reaching
eighth
marine
##owa
##aceutical
promised
slam
##opher
predict
depth
guns
represents
devast
cameras
gary
crews
unlikely
dol
facts
modi
funeral
boot
crucial
pc
blast
bruce
laur
substant
stations
elev
fred
194
participate
courts
woods
navy
##abeth
indiana
##rig
##17
planet
outlook
##ylvania
controversial
reaction
investor
penns
##entine
nich
##ora
chees
awarded
ark
gained
flex
les
##ika
pence
chamber
imposs
98
globe
##osph
##oenix
export
##ouri
centers
exclusive
yank
attacked
degrees
ank
cin
improvement
weapon
mixed
##dale
wounded
victoria
recommendations
##aza
##exp
scandal
opponents
prohib
knock
investigate
challenging
##aly
phoenix
sequ
##ila
hindi
##acle
anywhere
breach
scores
##ression
700
patch
pleaded
column
totally
button
interact
electronic
##aled
shouldn
defic
athletic
ker
schol
wonderful
electricity
drinking
sydney
foods
consp
hosts
antonio
complaints
malays
##pson
##berts
judges
##ux
courtesy
opio
euro
bjp
grass
##oration
##bal
chronic
isol
territory
pennsylvania
failing
rewr
blues
cu
##iters
##oral
##amples
eliz
mining
capable
##osis
##ifer
columbia
bars
remark
voc
performances
##worth
beating
volunteers
drawn
colon
##iot
powers
##uated
steven
triple
threw
##kel
ages
helicop
stable
claiming
effici
showc
somebody
depos
combination
discip
confront
temperature
ministers
##bel
cyber
racist
bedroom
mum
citizen
replaced
scenes
vend
olympics
struggled
##key
hub
phill
roster
girlfriend
##mate
diet
##nam
fewer
remarks
wwe
##ti
regularly
##inho
clinical
cul
affili
ku
##ounced
forms
charlotte
##idency
chip
thompson
secondary
provider
chocol
impossible
links
contracts
outs
rig
entering
symb
##ss
##ji
chase
thumbnails
##whel
covering
coup
extensive
defender
perspective
hamilton
conven
##itage
protected
matthew
kentucky
##18
monitoring
compos
##rison
revolution
relationships
maximum
regime
wash
##bell
deser
missouri
streak
regulatory
accel
prospect
invited
vast
trick
fame
hyp
repair
emerged
##star
##elson
instance
##inct
##12
veget
christopher
accomp
cents
illness
##force
cream
ech
registration
##emen
ottawa
##bn
##ilit
##ingly
pound
nashville
keen
settlement
gab
calm
democracy
unlike
##erto
##ography
neck
shooter
tank
rav
##ray
nev
mainly
tourism
acquisition
##ela
volatility
yu
novel
suc
unus
##ker
haz
chef
recommended
gathered
chat
bru
defending
terrorist
##anka
rejected
representing
stepped
cannabis
suspects
firefighters
##fire
desper
iowa
blow
ave
elizabeth
deeply
celebrity
networks
##beat
##othing
thor
reput
opens
strip
crazy
exit
musc
sympt
providers
agriculture
2004
basically
ourselves
momentum
leon
emails
##owski
##backs
linc
roberts
welcom
sant
delight
bears
abb
allies
operate
##ommod
flav
electr
##ete
tri
hired
discussions
pharmaceutical
dating
causes
violation
jets
kilomet
dre
##pay
dim
##uable
redistributed
tig
assessment
##umin
heavily
shoulder
escape
##oln
landscape
captured
##phones
producers
coaching
offices
outr
##leans
accommod
teenag
ingred
abortion
steph
explore
lav
##mes
##iano
ramp
transaction
obtained
submitted
##ounting
##yang
##can
£2
orleans
parks
targeting
birming
fantastic
##ja
professionals
##okes
encoun
transl
medium
filing
flash
##uous
##amin
##ria
operator
homeless
andy
anticipated
##aska
citing
##iev
birmingham
rif
excess
interior
ist
loyal
surge
euros
sweep
explains
saving
appearances
usual
colomb
##ales
jumped
concent
jacob
beng
rehab
cooperation
mirr
entirely
info
disaster
##ders
disord
##walk
explosion
atr
comprehensive
lan
neighbour
trees
shall
paint
##gage
##lers
phones
wage
ease
kal
valued
meat
usd
guidance
menu
ai
purchased
revenues
yeah
easter
##fa
##rell
120
entre
clothes
gate
plain
##itzer
sab
##anny
funded
organis
teaching
##iner
##perform
concentr
heritage
firing
proved
subur
russell
prosecutor
mouth
##uits
staying
##eep
##osen
description
lincoln
reward
futures
vulnerable
##otive
treasury
fixed
chapter
bump
ronald
magic
overwhel
simon
##ologist
carter
atlantic
behaviour
hid
##prene
principal
outdoor
cole
championships
rounds
fundra
tact
##iveness
saved
aband
##acc
##met
##olit
unclear
rape
strategies
prin
airlines
buck
attach
lies
##igen
peak
kingdom
shareholders
entreprene
anx
headquarters
lord
effectively
##ht
permission
galax
desk
##irty
keeps
mistake
awa
theater
cycle
stayed
prominent
applied
##abet
architect
exposed
aggressive
fitness
##imination
consumption
luxury
##gary
wells
##erly
soul
collected
adams
letters
##oured
tennis
chocolate
desire
##aka
proof
murr
cinem
label
pleased
oakland
manner
contacted
misconduct
kings
patrol
savings
toy
spotted
##ports
blame
cra
tested
subsequ
serves
dil
queens
todd
alexander
trained
ay
oblig
tea
pride
arabia
loud
shad
managers
investigations
extreme
tam
wy
streaming
eligible
##uru
##ashing
puts
legacy
marked
respectively
fought
copy
executives
encouraged
lowest
##oves
dust
supports
combat
bonds
fishing
##intend
espn
drawing
formed
md
medal
##maker
enth
venue
roles
strongly
dw
gunman
elsewhere
indicated
nest
horn
##cious
developments
manh
persons
spoken
consistent
##45
primarily
##ishing
preparing
ratio
##uate
##ourne
dates
sum
settle
compensation
fla
racism
##tra
##nic
automotive
versus
##tenance
##isan
opinions
milk
grounds
troub
gib
liquid
recre
jar
rewritten
mumb
rely
vin
amar
gif
quant
pink
##laim
enterprise
cited
sanders
twenty
##kyo
um
##etime
##unes
extension
conversations
immigrants
tesla
deficit
disappear
witnesses
regulation
maintenance
##mann
temporary
dies
nat
graduate
##isters
tokyo
kate
academic
riding
indones
##ycle
tariffs
101
sustainable
theft
stuck
rangers
reference
##eston
banned
ot
arrival
brid
invent
vig
tx
neut
##aug
jere
monitor
rab
acquired
##che
pedest
lap
smartphone
clothing
rooms
referred
covers
strange
dismissed
##point
fi
regardless
petition
##ovic
mack
sed
grey
creek
recognition
crypt
##fr
##oppers
ron
chicken
forth
concluded
empt
autonom
opposed
solo
dear
montreal
##tle
polls
sight
30s
succeed
hook
brill
##iti
organisation
whit
cher
dat
outcome
visits
ufc
shelter
bry
##timore
throwing
fled
limits
hosting
restrictions
gor
unve
##icul
elements
##iors
species
tigers
stem
resulted
##uild
spots
palace
intercept
parade
replacement
grace
scottish
##anged
##enz
chest
##ups
plot
rear
##una
maker
benn
crow
tai
mour
tiny
vik
expanded
statue
rah
advisory
theme
pregnant
rice
expenses
##riers
estimate
underst
generated
stanley
symptoms
##endum
municipal
intention
afghanistan
noon
blind
##osphere
padd
fears
puerto
amendment
collaboration
surviv
extend
shah
conce
blocked
2nd
##umes
whats
rivals
recognize
##die
strict
disrupt
employers
##con
mississ
chose
valid
holl
##list
henry
favourite
##iration
baker
roseanne
jewish
rolling
circuit
cardinals
absence
elite
ib
harder
eve
relax
mit
teammates
finger
angry
poly
lift
inquiry
enhance
##ture
##eing
fo
##rick
properly
congr
subscription
##iture
##jects
graham
belg
fog
assume
##abad
engagement
forever
##hal
elimin
baltimore
han
legislature
##ira
gulf
scientific
hip
donations
represented
nevada
ambul
therapy
consensus
portion
cheese
expanding
recovered
evol
referendum
##istol
##rie
fireworks
bags
hunting
damaged
##car
taste
conver
races
htm
precip
consequences
legislative
craig
fallen
articles
merg
##bb
##anth
sweden
reducing
reputation
nomine
residence
ax
kath
latin
journalist
height
ky
##etary
murray
synd
audio
mumbai
rams
celebrating
dispute
robber
##anton
tail
gust
deput
creation
sectors
recalled
investing
saint
##asy
##po
headlines
districts
2003
climb
laid
suddenly
vib
receiver
##ifications
alph
##ogen
##sters
overseas
jimmy
dick
depending
refugees
nur
resource
valuable
choices
circle
destroyed
aven
##pg
trophy
gray
breast
ideal
minority
insider
microsoft
contem
illustr
intens
demands
bree
addressed
1st
buzz
pdt
ninth
exposure
interp
chosen
formal
volunteer
trailer
sams
gord
engage
supplies
argument
escal
pension
platforms
mitchell
sin
pel
smile
##uster
##vi
answers
traged
sheet
buyers
opener
recognized
achieved
celebrated
##enko
recommendation
tensions
vess
##een
2002
producing
ug
innovative
dump
portland
personally
cord
realize
brandon
casual
flights
dean
smooth
toll
##iere
valentine
stunning
cock
mn
deleg
convention
##itable
periods
nasa
##rete
fruit
shoes
prospects
factory
##ennial
necessarily
trem
##bourne
interviews
##thr
clim
errors
##rum
discovery
root
reduction
yankees
organized
tyler
midfielder
##bul
nigerian
##ardo
brows
powered
referring
banner
requests
cave
##jo
shan
##abwe
mini
##aga
foster
pages
cheap
conspir
jazz
broker
toler
keith
deputies
inches
construct
##ipe
noticed
zimb
finds
mood
refere
adopted
html
##sl
titles
exhibition
sox
enthus
venture
liberty
tum
##hill
##utch
neur
##vp
associate
howard
jet
attending
duke
gam
arrive
aims
resigned
zimbabwe
##agr
##ippi
madison
tries
unw
##phy
projected
hug
galaxy
towns
##eld
questioned
context
barack
unusual
jennifer
innoc
accompan
fu
##eries
actors
resistance
##itarian
##ateful
presentation
wright
bart
rico
##ione
virtual
terry
statistics
hugh
constitutional
dramatic
pent
fairly
telec
meal
##oga
insisted
testim
kiss
kit
contribute
springs
##bound
activists
##aya
stephens
nights
carp
hawai
barbara
string
prevention
pending
segments
wolf
jes
tracks
wildlife
##acted
diversity
unn
searching
literally
fulf
cous
##agu
ian
walks
appointment
tweets
##ographer
##kinson
liv
armenia
lod
scalise
samsung
nathan
anybody
sustained
##play
resignation
exceed
odds
cruz
##aa
##gy
thrown
clouds
recruit
##asters
unem
wis
indians
leaf
maryland
islands
acknowledged
dak
mississippi
pover
senators
locked
30pm
constant
dal
si
##19
overtime
elementary
##rence
unemploy
##front
##gate
boyfriend
nelson
lon
##raid
symbol
##onda
atmosphere
stages
swing
marath
luke
salary
poverty
##22
ingredients
useful
picks
auction
spaces
enem
larry
taxpay
machines
##ecks
profits
##eb
##iang
successfully
2001
presidency
##irates
louisiana
noting
gil
##aver
incredibly
overd
celt
frequently
rosen
narrow
orland
situations
glad
indigen
accord
robinson
striker
legit
blocks
hend
resulting
efficient
punish
breakfast
reds
cinc
discount
urg
indication
jeremy
contained
starter
##acked
brun
shifting
output
venezuela
welcomed
adapt
funny
runner
advised
spo
buffalo
jamie
topic
##ses
pyong
cot
verd
unexp
prompted
recording
belt
##80
worksh
##imp
tu
doug
scholars
gill
promises
dancing
##olas
nationwide
thin
folks
pyongyang
consol
mortgage
##arch
competing
##ternal
kennedy
afraid
divor
capture
##aid
hillary
iconic
##cia
signal
educational
attorneys
cryst
##licit
memories
##mouth
legs
orch
gotten
aj
inaug
tob
extent
jake
hadn
explo
argent
ranking
10th
linkedin
rated
federation
whatsapp
hire
comey
latter
motorc
palestinian
bou
colombia
##arge
furn
marvel
brilliant
cp
serge
disag
comprom
expecting
loves
airline
reun
bund
improvements
hamp
cum
catal
##agan
gent
campbell
tribute
gathering
bish
congrat
hann
automatic
##umar
developers
pitcher
writes
##yer
unif
writers
amy
posting
torn
##ixon
mcm
clay
wag
proven
opposite
hod
suspension
distur
helicopter
nass
appreciate
##ls
##approp
talented
secured
unexpected
hide
ghana
cowboy
involvement
dow
gamb
##imer
defeated
provision
pear
ster
##osa
humans
ult
griff
striking
migrants
##ni
jessica
dc
appe
##arian
nationals
ownership
##war
implementation
packed
wol
rodrig
##respond
longtime
advers
villa
dougl
##idays
loading
ale
membership
lakers
correspond
routine
observ
flowers
##ardash
ranging
impl
##jan
pure
satell
ultimate
edwards
butter
substance
##ibilities
sporting
fasc
##icut
organic
chart
##onc
##arth
constitu
boun
resolve
boxing
prelim
sty
tampa
##eo
kicked
shaw
abr
transm
murphy
lying
traffick
echo
km
counties
##burn
marg
awes
##weather
indigenous
fastest
skill
okay
##attan
kam
mans
requested
undert
cad
##to
##izon
##igation
connecticut
mud
moderate
controls
grateful
screening
##how
differences
##don
##castle
repr
substit
shocked
bust
handling
disabled
reviews
##bie
pursue
wayne
terrible
bathroom
besides
##ello
overt
orlando
disappointed
purposes
ukraine
racial
gig
exempt
focusing
entit
finishing
steady
cleared
essentially
2022
guidelines
lor
##etts
taiwan
fleet
normally
193
plea
intense
equival
##oning
capabilities
neutral
comed
genu
publication
##eph
lau
##24
participation
hoped
suspicious
ted
exports
##innati
processing
delivering
reasonable
wore
tracking
buc
redd
concrete
cincinnati
petro
spy
breaks
viet
retailers
900
rar
endors
pav
columbus
arkansas
criticized
sensitive
cohen
customs
slowly
picking
addressing
tragedy
warren
welf
broader
reserv
##inder
empty
fundamental
ski
transg
##chez
wise
responding
##ateral
encouraging
stability
brut
diverse
##what
caval
tas
incorpor
encounter
mirror
##apse
disclosure
maintained
##25
awesome
efficiency
##berry
scroll
promoting
rall
visual
initiatives
poison
bun
cd
input
##olds
methods
conspiracy
cable
blamed
container
##iques
judg
processes
michelle
npr
taught
jean
wick
lisa
##mont
##xic
quoted
conclusion
ja
vacc
bullet
argue
lem
hearts
interv
mexican
uncertainty
typical
javas
kay
objective
xi
sponsored
reign
contrast
welfare
javascript
##usalem
accusations
groc
childhood
opioid
switzer
bachel
eb
traveling
progressive
jerusalem
hiring
sisters
somewhat
stall
enjoying
seized
sole
gut
categories
colour
confed
approached
egg
lawrence
clinic
##leton
fighters
lgb
transit
abroad
releases
sexually
traders
hidden
password
spell
overl
ballot
kinds
controversy
admission
hors
goalk
makers
##ographic
ni
installed
chiefs
##emed
dna
wet
##achus
transgender
quarterly
bm
##eding
##encer
landed
##ito
duo
coordinator
##arms
yields
generate
insight
##kshire
cm
##ointing
facilit
goalkeep
##ladesh
bangladesh
nominated
orient
##izza
freshman
precipitation
cubs
delayed
pill
alan
collins
survived
##ads
lifted
pricing
marathon
introduction
amounts
hunter
##itis
##sex
superior
phen
##terest
diseases
packaging
rio
##igar
trigg
neo
pled
conservation
paddock
caps
advocate
constantly
##achusetts
ambulance
massachusetts
dining
universal
personality
##iro
councill
flames
##inking
rapidly
privile
appeals
kash
##ogs
brooklyn
110
##ded
##acing
somewhere
##ares
cdt
detained
cn
dominated
manhattan
dodgers
kardash
##zing
myst
##acon
gordon
denn
palm
douglas
alexand
##di
##vens
nonpro
burning
##lining
inapprop
##here
gren
newcastle
participating
ridge
##lr
marshall
realized
everywhere
activist
underway
files
testimony
##ista
ensuring
utility
licens
tribune
alter
protecting
submit
shout
guarantee
caution
procedures
##atar
drum
##child
##iah
supremacists
speculation
coron
##andez
topics
loving
pas
illegally
settled
sanchez
nomination
bachelor
##erb
scenario
alumin
dressed
bold
nutr
hike
chand
specialist
##bow
compliance
barn
sacrament
mason
singing
begun
dece
remote
qualified
accurate
pregnancy
tear
##ulating
tier
sons
preliminary
##lan
addiction
robot
jane
colleg
tears
indonesia
universities
departure
noise
kap
fantasy
reads
mistakes
knights
designer
enroll
##35
martine
apparent
lgbt
consideration
prol
duties
watson
neil
exclud
suffer
proposals
demanding
aspects
describe
followers
shir
oscar
##oop
diplomatic
bub
suite
incent
seeks
craw
##aware
gonz
understood
peters
honour
alloc
##gun
removal
spiritual
theory
##ece
contains
berlin
shell
tone
midd
##aughters
autonomous
##uls
penalties
suggesting
strikes
herald
foul
documentary
anymore
mi
tent
condemn
argentina
turner
wides
##itial
predicted
berg
trillion
deport
opponent
promising
shops
interstitial
sg
electoral
##onia
defined
##16
salv
benchmark
##cott
##elli
##izer
cardi
nazi
lip
##arrass
tumb
##eria
decor
rushed
##oyd
addresses
viewed
drinks
jesus
##pread
##ujala
amarujala
##do
##endous
embarrass
attacking
meets
##hy
backs
screens
hydr
discrimination
commod
observed
##umph
fern
perry
slid
flooding
quit
witnessed
mck
diagnosed
mourinho
##omen
##ikon
##aws
praised
institution
##lessly
eggs
bever
guitar
bats
habit
rolled
dual
indicate
charging
random
##ype
dreams
township
beef
rou
melbourne
bb
dor
##acco
contribution
contributions
reforms
balls
fires
imposed
depression
warner
advocates
jerry
trucks
throws
morris
presents
emissions
feelings
nan
castle
gmail
calgary
institutional
babies
bin
crashed
bennett
collective
sponsors
2023
##aco
wages
pulling
anch
20th
widespread
##13
cb
quarters
longest
beaten
barely
disclosed
hood
adjusted
##gregor
ranch
sparked
developer
anger
additionally
unfair
grav
sacramento
nhs
##oli
evil
pron
swimming
roger
suv
procedure
bunch
adoption
pione
relie
martinez
aqu
theresa
strengthen
destination
attendance
anthem
protocol
##gi
ast
danny
dropping
renov
signature
walls
complicated
deserve
feedback
eikon
rbi
casino
shadow
nad
rash
##udeau
instant
asks
ranks
outlets
cs
##enham
artific
entrance
stewart
singles
##wal
dialogue
nu
lion
aviation
sib
##hand
bengal
thick
lean
mcdonald
wider
administrative
maine
affair
roman
##ifies
campaigns
##endra
##lington
titled
shore
teleph
travis
occur
##iece
parker
harrison
odd
poland
assign
cape
listening
militants
cf
##ucker
seal
alberta
harvest
##elo
bil
knife
##unction
ft
nc
daughters
##hu
survive
radical
lifetime
protein
hawaii
fool
pix
isolated
##itious
employed
krist
##aro
trudeau
switzerland
##wick
##iott
scrut
overview
curt
##wall
##essing
ry
robbery
attempting
##itr
comeback
extraord
stressed
##argo
vlad
insights
##borough
charlie
4th
motors
briefing
pause
itv
missiles
##hari
whenever
violations
divided
lobby
##uro
##acies
susan
collapse
booked
qualifying
detention
iranian
malaysia
##xx
##ication
neighbors
##brid
##teen
religion
vendors
integrated
##brook
pizza
reviewed
penins
forecasts
experiment
tradem
crystal
aub
pinterest
por
imports
fighter
consistently
bass
mcgregor
bloomberg
investigated
commander
voices
classroom
landing
##ivan
external
anonymous
instrument
premiere
offseason
papers
imper
viral
robust
collaps
thail
hob
hotels
cowboys
implemented
icon
donation
##ipper
alf
cooking
thomson
twin
handful
unity
operational
##ellor
feder
thailand
contributing
fortun
logo
consent
anyway
photographer
solve
equivalent
universe
isa
##omo
components
vacation
prosecution
vary
##ctional
item
##ahu
shield
gram
##opez
availability
techniques
journalism
grid
upload
referee
reck
##king
iii
physically
##atherine
##media
distribut
attractive
touchdowns
intellect
trag
preferred
formula
kirk
##uez
##oa
trips
timing
conservatives
raiders
cavaliers
wrestling
##rol
trig
knocked
deeper
peninsula
##lings
lineback
##ei
thorough
proceeds
wireless
cameron
vet
cass
inters
creates
headline
meg
competitors
unr
ethnic
dubai
elderly
sits
proceedings
##imir
podcast
derby
consolid
##yard
electronics
##mir
shed
interim
comparison
dolph
riders
relatives
##enger
overwhelming
bryan
gaming
carlos
brooks
empire
dict
perp
agricultural
cruise
ware
departments
##mal
smoking
terminal
broadway
tourists
inher
calend
teenager
outperform
loose
unpre
nationalist
modest
dispos
unemployment
sciences
merch
dy
lopez
##aping
rib
hans
##asp
##mart
whereas
agreements
bradley
##club
kidn
dynamic
bottle
breath
checks
embass
goalkeeper
##oric
##lie
substantial
preced
distinct
summary
inspiration
barg
dispatch
boom
loaded
##itens
gonna
zoo
adequ
##manuel
arrests
arc
greitens
revel
##obe
financing
##bron
portug
inacc
##bean
certific
reddit
steele
##attered
##ws
backing
##ros
assigned
3rd
delays
silence
intervention
##uting
rebuild
##ensively
##iller
1999
anxiety
crossing
##olo
replied
decent
##gle
upgrade
franklin
spencer
grabbed
mick
richmond
3d
trains
metrop
##print
sne
hr
wanting
railway
analytica
sri
survivors
##oping
emotion
viewing
liked
pollution
involves
defendant
preparation
verdict
philippines
mt
killer
workplace
hello
boards
carries
bollywood
isis
somehow
rifle
dakota
##omfort
11th
sophom
##top
kardashian
desert
bread
cigar
automatically
confirmation
marcus
launching
courses
spic
narrative
##uther
obtain
micro
stamp
corps
kenya
delta
judicial
friendship
arguments
##cos
enorm
operators
clip
overcome
guardian
explan
regulators
zach
runners
travelling
shame
erd
persist
wre
borrow
##icate
lottery
seemingly
princess
##wear
reass
careful
cats
datab
authors
rachel
operates
perfectly
expertise
nerv
##dish
ng
carefully
integrity
##western
incorrect
dealers
nonprofit
wings
scholarship
celebrates
consulting
highlighted
bent
##oat
expense
everyday
reed
plc
##ensions
invas
rome
maintaining
yor
emmanuel
disappointing
episodes
##bec
mug
rogers
tables
supervis
glasses
conviction
generations
indianapolis
drives
earning
##part
volunt
gardens
equally
ankle
bald
diesel
toil
##istry
transactions
issu
##pd
costa
completion
cooler
blaze
postseason
implic
accomplish
trials
marl
130
artificial
backl
scope
letting
##gow
remarkable
borders
holidays
##anted
demanded
cosby
bot
##phis
##keep
rarely
collision
lung
cheating
##ampton
visa
gest
permit
##no
mars
sponsor
fate
forcing
##ami
coastal
##23
closure
channels
trapped
acres
globally
felony
bankrupt
saves
seniors
carrier
##oday
fault
190
rex
merced
##zer
humid
elliott
matthews
mountains
innocent
##agh
placement
liberals
##adi
eagle
repeat
##fs
bc
tired
reliable
establishment
rc
dere
copper
##bar
diabet
editorial
##pal
chanc
announcing
accessible
tort
q1
desperate
##ige
attitude
memphis
tobacco
sha
holy
impressed
adventure
##athy
cleaning
safely
hardware
mayweather
chaos
joke
##lev
##lis
emma
dublin
lessons
deployed
occasions
weird
chuck
swiss
acquire
lucas
hanging
carib
divorce
##orous
##zo
prayers
reveals
symp
bristol
gusts
##eli
vladimir
##shot
##tech
organisations
nato
dh
thousand
subscribers
##mi
chemicals
birds
hatred
challenged
stops
introduce
exception
garcia
benj
##new
##gie
##yth
infect
manip
superintend
pup
inmates
parish
nutrition
timber
##bank
##14
##iley
911
condemned
unpreced
yah
browser
unprecedented
pomp
insist
grap
civilians
##ception
panthers
peaceful
steal
survival
mutual
connor
subsidi
##ussels
parliamentary
phenomen
donated
conscious
toys
##ippers
oliver
nag
rb
interf
##acular
beck
accum
barry
convin
beth
bacter
reserves
##shore
360
##row
brent
exhibit
epa
surrounded
visible
rip
##aba
muslims
unt
drake
##ima
toxic
param
bak
##70
##isd
hodg
prescription
attached
charter
telephone
##olitan
jefferson
treatments
suspic
qualify
£3
##df
##estone
blake
fold
lakh
mps
intim
burden
belgium
defended
diver
guaranteed
scan
moral
gaz
wimb
##orious
holes
##rians
180
##icester
evan
resume
bio
contacts
fy
reflects
sophomore
##pan
structures
nassar
virus
gran
burgl
url
whis
recyc
meals
inaccur
describes
sudan
inspector
##grav
juan
##90
##laimed
##ahaw
diabetes
##agen
harb
ronaldo
guards
21st
gmt
hs
requirement
gb
centres
steam
calendar
##rets
brow
explosive
##break
sterling
tremendous
##ran
##riel
rental
framework
angels
ahmed
##ylie
bone
toss
cros
patt
cafe
cater
chad
poet
infection
lynch
repeal
yuan
delighted
embassy
offence
12th
1998
##haust
monetary
bernard
crop
annually
philip
##oria
prad
anytime
crossed
touched
soil
##holder
camps
leicester
spray
ashley
bishop
naturally
cryptoc
medication
drunk
examples
shocking
similarly
invested
wound
##ledon
ss
rapper
bapt
billy
outrage
##stock
erdogan
settings
exhaust
billions
reception
##aca
experiencing
bic
stir
dominant
stance
rd
storms
##mun
##emble
format
functional
credits
donate
engaging
##rupted
##shine
##tering
halft
convinced
reiter
deliber
wimbledon
dennis
magistr
analytics
##vere
assured
ally
vigil
garage
anonymity
sentencing
connections
sued
twins
105
struggles
##van
emer
lamb
buhari
cem
inappropriate
##oh
trop
retailer
fried
triggered
semif
hacking
dement
discussing
manufacturer
##rin
mate
mlb
firearms
##alia
20s
halftime
abused
outfit
faculty
laura
instructions
extraordinary
tang
tott
seoul
interviewed
waves
humanitarian
##kar
thai
superintendent
temple
stakeholders
unders
##pc
##mund
digit
##acking
1980s
mull
##edia
focuses
classified
ucla
containing
routes
lighting
##ept
mcl
stopping
engineer
##million
alle
popularity
sod
stap
fare
trafficking
mystery
vit
oliv
##col
##jected
appearing
pose
stepping
workforce
acceler
showcase
swan
nate
tale
authent
##etta
mandate
heights
gabriel
cryptocurr
spill
butler
stole
dug
movements
engineers
contemporary
brussels
hern
lagos
##km
trim
organised
obstr
badly
heather
luk
cancelled
##anbul
respective
definition
lebron
dawn
teeth
criminals
refugee
kumar
urging
assaulted
rhet
emotions
au
lig
##enna
##obi
minne
orchest
grants
painting
vietnam
saints
unch
lakes
oldest
advisor
starring
entrepreneurs
caf
courage
purchasing
##owned
##angers
medica
anna
aspect
##bu
brush
actively
ordin
pitched
petrole
minds
luis
nervous
##ikh
silent
reject
sunshine
bout
kw
chan
emily
##gor
benjamin
##icon
brig
teens
reverse
cotton
hybrid
muham
istanbul
cz
##chi
uncon
spectrum
dolphins
dash
locally
answered
inev
execution
fib
cc
enl
operated
speakers
interactive
queensland
medicaid
arrives
murd
##jar
slide
##inge
bonus
epic
##iate
shipping
inspection
shake
devastating
##aser
subway
authorized
rodriguez
##oto
aston
mainstream
vel
##mid
moreover
jurisd
spotlight
minneapolis
##uded
pupp
hes
##aki
convent
pipe
kashmir
1990s
ric
##bits
##issa
bik
underground
##vo
nazis
lets
parad
##mons
tillerson
johnny
##ierra
##plus
rud
priced
puck
petroleum
passage
dutch
cake
rushing
fing
qatar
##yon
trio
##umber
audit
declar
##kh
studying
burst
experim
philos
displayed
hedge
alarm
fargo
bulls
checked
fda
##gal
##omed
spectacular
graph
winn
athlete
##ghai
cox
colors
concuss
fabric
##mel
reop
dementia
browns
ancient
##azier
rsi
ore
buses
terrorists
scratch
romantic
hull
125
##dog
designs
governance
rises
revised
pere
embrace
nico
assert
ghost
unveiled
debr
default
rumors
pope
vert
##nut
edmon
rockets
reyn
backup
transferred
mb
##minster
shower
bryant
porn
roots
praise
transformation
soldier
hiv
accompanied
linebacker
##oken
accounting
txz
##osc
chancellor
##gom
##apers
brazilian
tottenham
expression
yen
ling
whist
safer
leeds
1997
melania
script
salah
sull
keys
arrangements
ports
rup
alerts
hardly
katie
promoted
batting
portray
##oded
pointing
practical
makeup
mills
bombs
kane
frag
finale
##ache
dying
plug
websites
frequent
##ylum
horror
edin
edmonton
carson
enormous
tune
wyn
asylum
##uten
unac
heroes
studios
intellectual
dyl
perce
electrical
marin
sleeping
achievement
ek
bra
choosing
bash
merger
edward
motivated
dealt
continu
##comes
tiss
##pat
gw
##ugu
shanghai
jailed
abandoned
gates
##children
gdp
##iva
nurse
importantly
bee
ladies
unh
fifa
mvp
uniform
pentagon
montgom
14th
stroke
ct
##000
##guard
strongest
filming
dup
##iciary
350
navig
##nell
announces
rebels
ze
##mother
acted
assad
helpful
absolute
gand
meaningful
entitled
pok
##oni
lauren
checking
##ologists
mandatory
vocal
##wire
bris
stim
##vd
##raft
18th
logan
##ea
fundraising
##lock
telegr
removing
burns
mog
##eta
distributed
surely
tragic
quebec
##erning
monument
harsh
detectives
hin
yemen
nod
##lay
nose
margar
engines
violated
consultant
horses
teenage
£5
##anim
##ulu
seahaw
montgomery
refres
pf
arriving
##urance
##haul
component
examination
handled
usc
13th
trauma
##ptions
##thetic
bias
hughes
##erald
arguing
doubled
##21
retr
sony
peers
releasing
cockt
caribbean
mccabe
margins
ki
stevens
signals
subscriber
crashes
##uctions
muhammad
reh
associates
scrutiny
trademark
##inely
honored
kurdish
yorkshire
voter
posed
##aint
hopeful
packers
purchases
leverage
daw
ordinary
outcomes
seeded
equality
pradesh
##net
seam
requiring
optimistic
##afts
##ettes
tape
tomm
lanc
bases
heroin
doss
froz
ov
canadians
dated
dent
celebrities
suppliers
##lusive
##markets
accuracy
##idem
doubles
##ping
deny
ios
hass
preview
##erie
##goal
103
fier
beloved
certified
hyd
briefly
##anded
simpl
inner
metres
seahawks
economics
massac
roma
commentary
metropolitan
tiger
##annon
sacrif
steelers
nursing
reachgoal
##orth
raises
sentiment
legally
frustrated
gene
treaty
detective
audiences
frozen
bt
trades
complained
mercedes
##ando
##astics
gifts
gentle
sheff
furniture
filmm
impair
fights
conducting
anne
criteria
##apeut
##ean
acid
ultra
everton
prosper
satellite
peng
politically
kan
homer
bos
##rad
##aton
##uces
sinc
offences
teammate
clicking
##iaz
displays
cagr
walmart
curry
restore
rhetoric
comply
derek
thorn
shep
installation
barriers
deck
eliminate
##vereign
sovereign
refund
russians
taxi
fert
farms
romance
database
prest
masters
bands
greek
deemed
studied
stealing
##vy
legendary
##reen
joshua
usage
overlook
portra
lands
designated
broncos
stu
bayern
confederate
grocery
mend
oz
##aux
frustration
td
aides
slim
enthusi
aggrav
##itters
jacket
##marketresearch
disorder
packages
scared
renewable
sized
exploration
taxpayers
joel
gibson
cliff
genetic
twist
segmented
biz
flush
boxes
dynamics
demonstrated
cler
grave
trainer
polar
sullivan
19th
coat
downs
lect
receives
jared
wi
sierra
vr
##esty
existence
orth
explanation
pig
attracted
lex
muscle
##oped
leban
overhaul
carn
comic
phillips
cousins
nixon
##jay
collecting
wrapped
phr
presidents
athletics
bombing
pine
impose
tourist
applicable
louisville
pond
photography
##illo
lanes
alaska
migration
prost
cruel
startup
tempor
toyota
retain
wishes
##omin
shootings
##itement
deer
##77
nominee
jin
merely
aluminum
participated
yahoo
oun
couples
stakes
intel
##astr
aide
renewed
krem
superv
enemy
##kk
lawn
##nc
porter
amp
lump
nap
catching
hd
liam
haul
soup
steep
fm
citizenship
burned
photographs
scul
##jab
##uration
refr
assisted
tonnes
honey
bog
mul
ammun
bobby
160
##oors
##fell
##ahl
bigot
selecting
trev
rend
shy
sheffield
unav
thrilled
preserve
postp
motorcycle
ibr
##father
fitz
convert
averaged
restrict
trigger
testified
lists
##lee
honda
stead
##mans
##ahe
therapeut
sew
##28
##ilst
##isive
cheer
##aving
disappoint
listing
enterprises
homet
completing
employer
wels
bug
vern
obst
nightclub
##wind
1995
postmedia
chargers
bankruptcy
##hd
coinc
##esc
##eded
escaped
closest
henderson
raf
##uja
##ouch
economist
ridicul
computers
recovering
##iatric
climbed
sgt
karen
suspicion
cemet
ruth
blan
##ourt
rescued
advocacy
colleges
cemetery
notified
15th
##bish
marie
cops
questioning
2021
integration
chips
ukrain
genuine
apology
revol
ig
replacing
decrease
collapsed
ammunition
posit
declaration
leak
greece
equipped
judgment
prescrib
troy
subsequent
hander
##lake
resur
inland
kend
sufficient
hometown
devot
1996
interference
##airy
1000
responses
hannah
##urt
##chenko
damages
virtually
comedian
immigrant
spurs
dm
weakness
samples
##li
separated
hence
corporations
##hner
suns
hazard
##cs
scout
##quez
##rics
##atoes
concerning
elabor
versions
grandmother
##ahan
disch
sheer
ethics
ferg
##asi
nv
plun
assass
retali
meter
solely
skilled
pedestrian
eps
hernandez
nunes
##cons
tons
julie
apologized
parked
edt
##string
evolution
homeland
##54
gaining
locals
carroll
programming
jama
nether
vic
superstar
##iri
matching
probation
oversight
workout
combine
rankings
reloc
sandwich
deserves
offerings
##isons
shortage
cheaper
vowed
whilst
heels
libya
delegation
tours
##aha
##nold
clearing
##99
glen
bottles
bronze
enhanced
batter
radar
wondering
sung
meters
celebrations
productivity
stup
bitter
brick
impacts
provisions
harbor
technological
affecting
welsh
explaining
forb
buried
jewel
##eshow
##inery
traveled
drafted
architecture
pledged
##ques
representation
spicer
nigerians
offshore
indicator
capitals
celtics
fract
smell
thirty
styles
ignored
epidem
holland
##eastern
beliefs
gi
kab
femin
principles
bruins
##omy
approve
treating
laboratory
locker
unaccept
grandchildren
explicit
powell
underlying
lapt
##rep
##active
sections
battling
oxy
##oj
expend
notable
knight
##asty
hodgkinson
lah
interpret
reprod
##orted
andrea
unanim
delivers
impacted
publishing
gp
chaff
##oko
trusted
##usive
baptist
mak
slot
musician
unions
claire
bailey
reynolds
impression
pole
passionate
##ateur
140
lovely
vikings
farming
sanct
patterns
hunts
commented
swept
appealing
ws
seeds
kicks
##fund
##arthy
offset
fence
homeown
demonstrate
leather
##ilitation
gover
nominations
aging
##tz
legitimate
depends
supportive
formally
millennial
flags
hackers
dossier
gad
##ken
##ede
scam
1970s
admits
##fers
wp
careers
cattle
exploring
bengaluru
honestly
relating
reflected
troop
lac
nair
mete
absor
fid
researcher
transported
nerve
bulld
quote
evacuation
flour
vand
brave
topped
lesson
chester
equities
vegetables
affir
ukrainian
lg
punjab
##omach
indict
dylan
styl
##osy
enabled
sauce
compass
mario
pitching
pets
tropical
prevail
kas
congressman
farmer
milan
excitement
glenn
temporarily
monster
denies
dental
sque
breathing
danc
102
punishment
approaches
flew
vincent
gol
tatt
upside
deposit
mild
##tors
lasting
uncomfort
resolved
crush
mohammed
weaken
musk
desc
valuation
breakdown
subsequently
tenure
lending
##ori
formation
differently
mccarthy
victories
##74
##65
crying
priorities
tommy
holders
edinburgh
##32
login
slipped
dairy
matchup
pastor
rebound
ferr
leonard
governing
panic
pga
predecess
brib
marketplace
colin
merkel
infant
cinema
workshop
##ested
davies
carey
economies
leafs
##ucci
sask
tyr
##aved
disgr
respondents
##central
##criptions
##liest
determination
##ecca
stephan
dive
objects
worries
robin
trace
loun
170
tunnel
patchy
immun
hyper
molec
##math
##power
substitute
musicians
civilian
frazier
manning
alpha
nicole
wholes
brutal
##licts
tackles
accepting
affects
cla
crowds
##75
16th
uncle
##chain
##opes
flip
##lett
revealing
mm
##iminated
qb
##iously
##imm
nab
pepper
remembered
gymn
ducks
##ante
nestle
formerly
painful
logistics
converted
##aman
sculpt
wes
grove
misle
unacceptable
slideshow
nd
reminder
hatch
ambitious
fortune
evacuated
functions
pengu
discipline
stating
preventing
harvard
kremlin
gem
tire
sov
propag
rey
breeze
newsroom
##arez
devils
defendants
drilling
amongst
admit
ignore
relation
##ahim
tul
##oline
calculated
pti
##step
dot
##anmar
8th
bowling
resil
scientist
urgent
priest
##pur
lined
releg
armenian
kidney
warming
communicate
describing
aftermath
lanka
tension
##lets
venues
traditionally
conventional
tub
##ags
##try
1994
mask
cree
##eling
hem
myanmar
reviewing
reid
guided
rodgers
##wealth
oxford
kus
##omi
eager
greens
repairs
massacre
cer
urge
angela
poses
##inding
17th
nj
pierre
bip
##33
reader
spoil
strain
boosted
pays
intimid
hi
supporter
##echn
##ressed
thur
executed
##ontin
netany
##breaking
relay
##apes
gradually
brighton
pete
cosm
tempt
netherlands
maple
##kir
smugg
mobility
##cats
##inating
empower
consultation
naj
conflicts
understands
gaza
newton
##ecur
dign
homicide
smartphones
ballistic
lightning
awk
sadly
gandhi
meghan
netanyahu
##ims
nationally
lone
oversee
chambers
corrid
humanity
federer
palmer
purple
technique
wheels
##irl
borough
##awi
bah
vessel
##zed
dressing
whip
interven
underc
genes
lengthy
nancy
sorts
rocky
##ema
boeing
bare
westminster
stupid
nowhere
palestinians
acknowledge
straw
happiness
riverside
##ardy
commonwealth
drone
##athers
hbo
blaz
sandy
##uda
solic
tactics
bother
replic
eddie
pv
confusion
intersection
trent
kem
##fest
anchor
ner
accountable
1993
tumblr
abuja
ace
jagu
richards
marry
sue
unfortunate
destr
cod
##ipts
defe
arth
filling
productive
projections
uncomfortable
partially
obam
5000
certificate
scng
greet
restricted
bullying
folk
myster
burger
cycl
azcentral
shaped
reluct
destruction
blu
graphic
foss
##acker
transparent
104
confidential
tasks
rains
cocaine
disability
prayer
##su
boast
opted
canceled
klopp
stuart
ships
warnings
array
griffin
improper
antib
bucks
helm
broadcasting
excellence
##aho
exchang
barrier
pronounced
exclusively
gott
tue
supremacist
afc
awkward
wade
apc
clem
##iop
dirt
##eason
##ucc
108
##grounds
##donald
standings
intrig
risen
##elihood
oxygen
evident
jeffrey
edu
##rome
##chat
murdered
jews
##ailable
preseason
historically
rehabilitation
lens
cookie
negotiating
battles
##lu
pleasant
demol
##writer
bigotry
laps
drops
scrap
newest
##ouses
yoga
identifying
toilet
perez
powder
killings
accountability
sophistic
rebel
shoppers
warr
undef
bulk
##acare
##afe
cargo
winnip
##ii
desktop
chol
respected
drain
laser
##iola
##alez
bridges
dirty
##ridge
czech
##85
##uri
##low
soviet
winnipeg
##stop
enquir
schem
lease
kaz
##inos
transparencymarketresearch
bacteria
##onnell
boots
liz
jarrett
damaging
cuomo
outlet
shareholder
wagner
garb
persu
contractor
cycling
exists
pitches
neighbourhood
##arn
##ieties
diagnosis
barrels
wheat
blockchain
notably
composite
youngest
licence
og
wals
organizers
defenders
1992
emirates
mentally
considerable
livest
alexandria
thanked
winger
glam
sensor
hudson
##ulous
apartments
profiles
investigator
ri
acre
sof
sharma
##uson
hik
wang
##otherap
fiction
stranger
joins
49ers
fet
exceptional
stam
deciding
geograph
advisers
##caster
governors
domain
stabil
pointers
christians
drought
segmentation
wounds
##vs
##alling
fined
suburban
draws
warehouse
polish
appropri
##fan
##roe
115
clashes
catherine
canyon
titans
beta
occupied
privilege
gujar
advances
babchenko
indicates
transmission
mg
vint
dubbed
concussion
seb
server
sach
openly
authentic
##ching
filmed
cyn
furthermore
kicking
harper
hect
qualif
azerb
aggravated
azerbai
disabilities
creator
rocks
hurrican
stark
worthy
prisoners
loyalty
##bus
speeds
pursuing
mattis
lith
pand
accusing
balanced
households
len
##through
programmes
iraqi
angle
flows
pursuit
deleted
uncover
physician
welcoming
arbit
pour
demonstration
pants
myth
mothers
maduro
slammed
##watch
mobil
grat
##umed
waited
horrific
belle
nfc
trash
delaware
interstate
notification
declining
recreation
brokerage
enab
feeding
abu
##byn
garner
mik
##otes
drill
blanket
##osystem
dramatically
hurricanes
pct
##ules
colleague
##ration
jumping
compare
##thouse
##hall
civic
introducing
bounce
warn
triumph
mets
sang
stomach
gonzalez
##boards
##ords
remem
pointer
firearm
politician
ral
£4
transpl
nationalists
volumes
motorists
corey
emphasis
##asses
approaching
weighed
pompeo
##oca
confused
clarke
glas
##eton
landmark
talib
5th
immune
strictly
##organ
refuse
##eda
blank
founding
pickup
entities
shirts
##essa
1990
michel
villages
naval
cherry
nebr
currencies
##heimer
##ctic
capability
identification
ebit
planes
slip
sd
manif
generous
principle
##bull
inqu
##agg
instruments
kilometers
sb
stanton
lp
##tains
##reach
##ardi
barnes
oral
subjects
judiciary
cia
##ellation
lawmaker
sells
rainfall
750
##ibutes
rider
gorge
appreciated
##urer
asc
bets
##othy
attendees
ced
crist
blocking
rays
chains
brien
slump
tender
##nis
weekday
discour
applicants
opec
vessels
wreck
reconc
##asha
##imited
insists
rede
##etti
opposing
wip
cardiff
##comm
spart
courtr
partnerships
norway
inventory
##tha
stats
plum
permits
flexibility
##arre
flexible
##29
##itary
traum
unnecess
##isha
unavailable
hutch
verizon
applying
nebraska
inclusion
trending
worn
compromise
grenfell
shane
connecting
difficulties
scattered
neighbours
hiding
soy
administrator
accessories
linda
##bucks
tat
diamondbacks
pledge
##iba
##uv
sensors
kin
quad
delicious
vine
economists
rhyth
lynn
directions
unlimited
voluntary
courtroom
averaging
excessive
businessman
deployment
avo
maid
##dling
##borne
narendra
spa
thirds
hampshire
matched
suitable
auburn
newspapers
##gets
##ener
juice
duncan
stabbed
competitions
##fty
intelligent
prohibited
jays
commem
intends
forgotten
plaint
bend
##olly
achieving
carpet
grill
fits
wrap
albany
entrepreneur
arthur
abdul
flagship
disappeared
sara
silva
munich
##pen
attributed
councillor
maps
kad
suz
continuous
tin
zones
##bane
##stown
median
backlash
##ationally
boats
inflamm
aap
##ingu
sprint
minus
influential
bour
ears
rolls
nail
##qual
nra
##assian
nurses
recreational
lyr
##erick
tablet
contents
simmons
automated
gujarat
mock
gro
injuring
reiterated
aggreg
##affle
##urred
withdrawal
##aku
goldman
launches
inspire
acceptance
auditor
catches
minimal
##avery
##aheim
##bling
amateur
performers
reminded
snapped
janet
##stage
align
oppose
skype
juven
gps
caring
scorer
##27
shootout
conor
##rist
lasted
surprisingly
obamacare
prizes
curb
spirits
dell
peer
starbucks
tory
interc
printed
emerge
nord
scary
examined
spreading
ibrahim
painted
recession
entity
accommodation
supplied
placing
automation
devastated
opera
##eong
afterwards
tract
106
multip
##ecurity
kol
chile
##ucted
greatly
owing
pant
##auc
##oust
ugly
fever
graduated
recruiting
anaheim
##umble
ecosystem
touching
bearing
misleading
hudders
lemon
jenkins
unite
moss
implications
deserved
hir
convenience
huddersfield
aur
adap
##nik
memorable
nw
darren
patience
skept
rosenstein
viv
##arma
flint
wealthy
adverse
preser
bmw
cogn
##uably
breakthrough
##mers
dayton
##acious
##aints
slated
austria
aol
unbeat
##eva
rubber
fines
wilder
2025
##usted
inclusive
##kes
##allel
chaffey
alice
evaluation
brock
examine
prevented
donors
dishes
protections
kylie
1991
snapchat
##enson
gardner
earthqu
tissue
motive
negotiate
recruitment
defens
springfield
tong
perceived
clippers
productions
nascar
ferguson
vintage
##isms
sharks
wow
exped
scram
screaming
difficulty
cure
dame
##roll
samuel
infinity
supplement
pleasure
##mail
##boro
spirituality
piv
notorious
portugal
111
produces
superb
chev
cooked
exercises
rcmp
riley
zh
tougher
mechanism
mead
marking
##onso
royals
irr
##parts
syndicated
cope
speedway
accidents
helen
##ullah
grandfather
ridiculous
##lif
joey
disturbing
occasionally
diving
##tc
retreat
salaries
psychological
wicket
subsidiary
jurisdiction
brett
southampton
hawks
##ihad
##post
warmer
administer
commonly
negl
oc
pedestrians
mere
##uating
##held
stanford
panels
wend
mamm
##88
sail
boulev
stoke
simpson
raz
notting
bullets
rings
ana
collusion
rebecca
sweat
##chang
restored
accounted
convince
##acent
simult
halt
sidewalk
arguably
pakistani
##zi
cups
issuing
billionaire
brend
simultane
##press
hacker
sanctuary
dough
##ancies
contractors
aspir
intensity
##len
conj
blessed
suggestions
sic
hung
cel
accomplished
##oir
stunt
honors
countless
swedish
adequate
##rus
240
trevor
courthouse
lawsuits
##pin
stored
counting
entertaining
feared
hp
owens
##udes
ern
mig
horrible
##theless
excuse
rallied
##py
serb
##gio
leaked
pirates
##onde
malaysian
facilitate
##isle
inspiring
hungry
ditch
silicon
incumb
floyd
nevertheless
luther
undermine
kohl
invite
contam
youths
siblings
prompting
eliminated
falcons
forens
regret
lever
concerts
achievements
##mare
blend
stones
entries
gd
batch
chronicle
meteor
kle
##acles
idaho
joh
majors
surrey
warrants
healing
quietly
debris
neighborhoods
empow
##feed
precious
##iliation
brewers
invasion
moy
partisan
volley
##ols
davidson
pressed
boundaries
nr
alike
adrian
450
kenny
chen
noah
separately
##swire
erin
watches
bikes
cct
cement
tac
##itated
complement
##avan
imprison
inaccuracies
minassian
flooded
hikes
pills
responsibilities
investigative
alleges
##dam
##istical
outfield
booking
erik
lounge
mice
##34
myers
intensive
lifting
nominees
##oly
beast
salmon
kushner
##cor
##bh
betting
acceptable
apologize
wickets
biological
frustrating
specialty
rides
gur
compiled
displaced
boulevard
sunder
glasgow
9th
lid
accommodate
habits
phenomenon
sacrifice
evaluate
cort
sham
##urring
marco
##oven
unlaw
epidemic
guam
licensed
paramed
counterparts
dividends
lb
oy
churches
##omez
hammer
establishing
wheelch
cbc
algor
##iances
furious
outing
alexa
contrary
fisa
gau
ralph
alz
astrology
climbing
neph
layer
bucket
hydro
zur
timeline
cody
rm
perception
donor
beneath
dens
considers
algorith
samp
utilities
ndp
starters
extending
mohamed
amanda
##achi
assumed
penguins
##26
responders
cryptocurrency
wiz
##aven
partial
advisors
disclose
branches
lebanon
communist
wik
##oard
coroner
pie
meantime
gambling
ns
crowded
##ellers
verified
sweeping
raptors
messi
##identified
sooner
unfold
banc
##55
plaza
soap
appet
surpass
stein
procure
brack
borr
pharmaceuticals
pyeong
cornerback
amber
peg
regulator
seth
milestone
shine
medals
compelling
##immer
alar
caut
demon
curious
shepher
ney
leagues
poster
##mu
casey
perpetr
wherever
cork
stal
commons
recipe
preca
##imedia
jurors
bite
##eley
restoration
freezing
richardson
renowned
7th
##arc
annoy
offs
privately
wallace
heated
satisfied
fitting
trails
grades
burnley
rotation
rust
##igious
charities
fay
attacker
kilometres
offenders
##pled
aiming
ivanka
naked
q4
irre
cuba
##keley
diaz
divide
destinations
jacksonville
montana
litigation
natal
whistle
##strom
medicare
pixel
walsh
bizarre
sealed
peterson
blew
manuel
declare
brisbane
rut
polling
##iffe
acquisitions
schemes
109
enabling
##aria
tooth
secrets
shannon
config
chairs
pyeongchang
transcript
sentences
motivation
##newswire
measured
awaiting
floors
sends
##din
dian
uae
disruption
priorit
beverage
##the
chin
crops
implementing
appreciation
bloc
randy
windsor
##anes
sophisticated
##isi
30am
taliban
ravens
alien
##oville
apnews
indictment
fiber
##eav
sussex
premises
strategist
##quer
nottingham
chapel
wolves
philosophy
brom
holder
baseman
##opa
kos
spare
branded
cavs
cant
corrupt
berkeley
keeper
heal
##iq
stays
sunderland
##fits
##ortions
wooden
jaw
##pot
buyer
limitations
tide
teenagers
stephanie
##36
testify
jak
utt
dragged
nicholas
glory
rp
holly
mcg
violating
texans
gazette
sf
connectivity
overturn
seiz
peoples
mounted
marit
depr
chasing
gaps
lamp
oval
whoever
supplier
spice
vp
finn
choir
portrait
robots
appealed
mes
nz
##oba
burr
logged
syrac
astronom
alleging
jas
flaw
##otherapy
serial
embark
distingu
lobb
chemistry
troubled
themed
initiated
confronted
margaret
neymar
pivot
quinn
defl
titan
##alled
presenting
bomber
fres
incons
fossil
##je
councils
vertical
flick
##ches
reliance
moist
##ellar
##atta
##world
mane
maur
searched
karl
upst
olive
##orate
intimate
condol
##idi
interaction
avengers
##orse
strat
syracuse
curve
insurers
assuming
poetry
exchanges
##astian
seasonal
argues
lieuten
fingers
##ieg
realistic
critically
sequel
rus
albion
ethiop
languages
affiliate
burglary
##around
deterior
jal
hav
confer
credible
provoc
##retion
protesting
nightmare
fatally
##appy
alexis
bible
##arged
beneficial
owen
notion
pioneer
kis
##xon
affiliated
shin
suits
horm
commitments
##arity
grammy
gomez
jab
structural
sharply
treats
heyer
propaganda
##lies
outbreak
yellen
##44
enables
##afta
permitted
##rane
##inces
absent
hospitality
crackdown
##inda
supremacy
shifted
dependent
unidentified
intermedi
refusing
assignment
iot
allegation
verification
clerk
commodity
hoff
laughing
arrangement
kris
goalie
pt
grip
joyce
pupils
notifications
ing
##went
awful
overdose
dock
launder
##bled
##ospace
pag
##linary
gasoline
raped
booth
blacks
##far
##alg
bubble
rt
bosses
deceased
lenders
leap
indoor
##colm
randall
hartford
##oons
daniels
unbeaten
endeav
islamabad
ost
internationally
turnover
demonstrations
mechanical
shutter
gav
continuously
##dles
liability
nsw
retrie
superher
certification
charleston
astros
##hes
##ounce
compat
clarity
disposal
unnecessary
thir
abe
eleph
fleeing
takeover
recognised
flavor
##iya
alternatives
blown
##urd
aber
expressing
lyrics
sul
frances
guardiola
coleman
shoe
provinces
printing
stub
noble
cheek
dana
mim
julian
aboard
frost
dealer
reinfor
malcolm
tenants
unchanged
raid
divisions
jed
costly
disappointment
##ensen
artistic
220
6th
wrist
curtis
protective
sizes
feud
laz
##obile
criticised
zurich
##osi
covent
##isy
alv
heath
retiring
brewing
##isure
1989
##aments
##zel
landl
freeman
1b
bones
##right
unle
turnbull
nova
staged
unbel
jenner
jesse
aes
pave
175
disagre
##bird
riot
watchdog
observer
invitation
swansea
duch
dale
fluid
hitter
##mph
chop
##neath
mugabe
generating
bam
convictions
garrett
##onnie
rahul
marlins
telegraph
parole
cellphone
sev
underneath
##uala
propri
vermont
encourages
analyze
obsc
isaac
arnold
legislators
aerospace
##bles
compassion
##uitt
##nar
smok
ultr
obligation
rhythm
threaten
recommends
font
##atics
stere
blessing
##ju
vacant
syndrome
kapoor
messaging
egyptian
##due
shoulders
lovers
continent
locks
agrees
tolerance
versat
bureauc
manifest
bureaucr
prnewswire
knox
possibilities
olivia
plates
##awei
nets
elaborate
ebitda
consists
##enberg
visitor
physicians
megan
107
tuition
bilateral
regarded
garbage
rallies
spouse
autop
populations
mcconnell
##itative
sometime
aids
cair
##ais
define
huawei
inauguration
timely
upgraded
disagree
compound
excluding
usat
strengthening
header
sustainability
##pack
oroville
firmly
shakes
passport
objectives
nol
serena
##rock
rever
instances
telecom
interactions
##unting
comparing
croat
counterpart
predecessor
runway
unbeliev
travelled
admir
misd
breezy
##uctive
gst
boasts
irs
caroline
seas
##orton
acquiring
workshops
cute
disg
##oux
corners
##iasm
##mat
extremist
preparations
prestigious
pressing
dl
slowed
appointments
assessed
##mented
technically
policing
fortunate
cyr
chill
publicity
alphabet
##otto
cauc
##midt
##each
##ped
shawn
perth
##week
##enne
gareth
##uguay
fuller
uruguay
cease
decreased
beverly
moder
junction
suggestion
bullpen
##ras
instantly
melt
wenger
modified
audi
enforce
vaccine
duck
securing
filings
frankly
fond
lak
keaton
preston
endang
designers
meek
##anned
coventry
pilots
tut
vip
##grad
##name
briefed
financially
supervisor
jackets
lil
coin
commissioned
durant
rol
##fires
caller
denmark
credited
quarterf
commissioners
##fo
colts
wentz
digest
lgbtq
jokes
hearings
sensit
slee
##orne
insult
devin
1987
norman
recalls
recycling
eug
puzz
##uman
unrest
mma
foreigners
festive
bulldogs
bloody
bing
##idal
ferry
fundraiser
mega
tribal
patriot
wholesale
sut
beaches
beds
inevitable
##eryl
midlands
ensemble
creativity
disorders
##inel
psg
lieutenant
##66
salman
candy
nyc
advancing
banning
predators
##lisher
corridor
##angu
aired
##inction
maritime
corbyn
realise
brendan
somers
##aby
inequ
fow
obligations
britt
airports
weighing
##tor
accurately
gorgeous
alzheimer
##rich
##kg
delib
enthusiasm
repay
edged
bannon
hilar
beats
##ogy
pes
genoc
ceremon
fent
ard
diagnost
smiling
hospitalized
cultiv
##bra
1960s
reckless
agu
theaters
##ifax
witch
minded
##otyp
germ
casting
azerbaijan
transplant
##cot
horizon
rumours
kens
ceiling
flower
tah
##kov
##apper
practicing
##itas
##erte
hailed
sidelines
crawford
avoided
impeach
##inate
facial
batali
cov
applies
brink
##acht
stunned
mold
nt
barrett
quarterbacks
jpg
##ui
geographic
deton
charts
##piece
restruct
##49
opioids
persistent
##hot
##agger
hunger
gt
arranged
wildcats
influenced
inconsist
accordance
issuer
infam
##etics
stint
credibility
ellis
juvenile
rode
undergoing
clinics
borrowing
jeans
explosives
constituency
##fare
nobel
weekends
##fish
grain
realised
extract
##inski
contestants
##mc
conversion
##hawks
baldwin
homeowners
##nity
expectation
pdp
##ums
publisher
licenses
wheelchair
yon
leisure
thresh
favorites
elevated
visas
concentration
wool
viable
walter
graduation
##iggins
##idav
##unning
dominate
blair
##lusions
refresh
coupled
statewide
assumptions
shorter
slugg
##adh
mant
severely
martial
dimin
##eno
encl
troll
cyp
goss
##ilia
predictions
chi
solidarity
vibrant
denying
wrongdo
neal
centuries
catcher
cctv
##dled
reaches
9160
graduates
shifts
disqual
youngsters
processed
fierce
lumpur
exchanged
pall
vander
1986
discretion
preval
dedication
pitt
rim
abund
outreach
##rington
deposits
undergo
metals
##elters
ventures
uttar
tying
##irez
injection
mature
1988
fulfill
lenn
patterson
##mith
infer
##eff
decreasing
reli
doubts
q2
popul
educated
discounts
holmes
significance
harmful
gaga
##ocal
strang
rational
defer
supermarket
php
mates
##report
affidav
gregory
constructed
cott
newcom
ambi
starred
pla
##atti
orchestra
vernon
devoted
fusion
##sole
accelerate
relegation
fails
penetr
ounce
skate
##uki
apprent
councillors
limiting
merr
eleven
controlling
916045
kits
##lon
unfor
miner
detection
zan
mines
1980
capped
dose
##unal
reconstr
vod
zip
reactions
medi
lethal
##ascular
dort
justify
dire
##xy
rehears
clever
diplomats
condolences
fancy
imported
proportion
daca
nh
northwestern
unified
calculations
paradise
crunch
wellness
dill
hostile
tribe
jewelry
lightweight
recognise
deliberately
satisfaction
licensing
jor
kuala
##orable
##strong
regulated
incentive
##oub
accordingly
petrol
duration
incumbent
vista
tweeting
backyard
rhp
columnist
ef
enlarge
pst
##orized
wines
goodby
sas
possess
clemson
carriers
113
robertson
sympath
jos
topp
petty
nl
ston
##anor
missions
haley
indicating
##enzie
quotes
kyr
bros
intend
fx
##leen
amen
indef
25th
finances
collectively
970
heating
meh
##aching
genre
uncons
hopkins
paired
beckham
##95
##76
cough
spelling
##ifi
burton
surveyed
cousin
resorts
pir
committing
drills
militant
ramirez
incentives
##ommun
cigarettes
##giving
laptop
##vas
clad
blade
trafford
discusses
surgical
weaker
decides
payroll
logic
consultants
beard
infected
talents
abbott
masc
finishes
conway
mainland
##ayed
underwent
##etheless
##lean
autumn
colonial
ces
##ao
twel
irving
nonetheless
pi
##zb
##100
contender
simultaneously
bipart
pork
##rah
questionable
laying
correctly
mentor
eleg
##auer
mahar
abol
##uder
homers
poised
kerr
ink
##anche
##anga
coy
parkland
optimism
##angel
highland
midway
trinity
leo
neighboring
dragon
##ogether
mush
melissa
shorts
proving
contrad
lun
presum
broadband
fifty
bids
##rog
whites
posing
merck
gat
biot
##utt
##ski
administrators
##health
anticipate
medications
forming
interceptions
mound
##jud
merchand
thankful
declaring
collections
##auth
##eny
pressures
execute
elder
infections
##hard
rewards
needing
totals
##rez
shade
disputed
lok
##unted
abilities
unlawful
prosperity
rohing
revival
migrant
underperform
ripped
accessed
preference
shepherd
gel
##uber
cancellation
erupted
wildfire
brewery
twelve
incoming
millennials
sket
kills
hamstring
belonging
inaugural
experimental
##uz
rit
outlined
##drop
copies
fueled
hed
nafta
strikeouts
##emi
stabbing
skipper
manages
berry
sidel
##uccess
voiced
wisdom
##iki
middles
exploded
godwin
confrontation
suburb
##iox
ply
skies
holt
corrections
enemies
boosting
autism
effectiveness
patent
procurement
profitable
culmin
troopers
135
juvent
##iments
crafts
documented
endorsed
rack
zacks
##enh
roberto
miracle
penny
outdoors
tn
##aches
verify
bombings
harbour
mansion
vas
conceded
sellers
consumed
kerry
arctic
vendor
floating
nintend
##icans
manual
##hran
avoiding
xia
visibility
lately
maz
fortunately
spike
abuses
disputes
qa
##uds
analyzed
##ibr
relied
burg
miranda
chor
handgun
##ranean
117
raymond
surround
##hou
wyoming
magistrates
cautious
muk
nintendo
##tures
drones
112
jihad
variable
1967
wan
blonde
rhode
ancest
fran
fright
splash
contributor
fascinating
xav
console
slic
##weg
chrome
radiation
##opsy
prepares
wrongdoing
bark
profound
jeop
observers
juventus
dispar
podium
absurd
willingness
unrel
committees
dortmund
fallout
altogether
##feld
feas
semit
troubles
null
lowered
levy
sworn
celtic
jackie
reunion
piano
iceland
unsuccess
wich
##lain
1984
aval
##rip
roast
burial
specialists
aerial
grande
revolutionary
deliveries
gaap
pockets
moroc
diana
withdrawn
clayton
gauge
eman
breed
johan
steering
networking
flowing
genocide
kc
##wu
##yne
reflecting
abandon
##antha
sting
##cha
tb
##ksw
failures
chapman
subsidies
desperately
##cock
laf
battled
taxpayer
##aren
shelters
transformed
ordinance
comparable
mam
alumn
225
broadcaster
heaven
territories
pd
pard
##aul
shark
animated
midday
broadly
characteristics
nig
joked
selfie
bhar
dess
sink
wc
debbie
pharma
exter
grows
educate
conclude
phrase
tires
hasht
performer
lal
livestock
bacon
sounded
insurg
appla
lloyd
##tedly
mohammad
forensic
tense
thrones
dispens
thermal
oriented
sacks
adtech
distracted
separation
fixture
zuma
forty
##ashtra
duterte
vest
newport
relies
##mus
mineral
theories
##enter
leh
dn
til
##uba
coachella
ipad
patel
intentions
##gies
airpl
tus
parallel
##flow
harmony
##rob
navigate
quint
gul
pam
namely
##gg
sticking
114
marginal
##hart
gilbert
cv
##most
hindu
mediter
potter
slower
sacred
screw
syl
archives
frequency
inject
##stit
##lements
stride
lindsey
fruits
mcgr
##isk
##esters
230
albums
kensington
grie
utter
imaging
demonstrators
bib
##cu
positioned
figured
ibm
imperial
##eters
tally
£6
couns
complexity
estr
blas
conting
rect
stripped
monkey
convenient
##aky
mixture
justices
obstruction
prescribed
##rea
indirect
blowing
minn
remainder
switched
worship
tipped
##itate
salis
najib
reinking
fowler
sebastian
eligibility
cocktail
tattoo
maintains
forthcoming
containers
##rix
themes
curricul
registering
medicines
remembers
eater
hardy
burke
mindset
snaps
hamas
yad
derail
tornado
shouting
laundering
bipartisan
anz
tucker
bleeding
harmon
greenhouse
batteries
gosp
murders
##asa
obes
advise
closures
hilton
##say
thereby
leaks
compliment
budd
liquor
##oints
lodge
##urst
ambitions
##loe
boycott
grief
185
markle
advantages
##79
panama
favorable
##leys
touring
regards
tops
postponed
pist
sny
thurman
seaf
acute
receivers
tehran
synthetic
pacers
ellen
relent
semifinals
nok
##hem
convey
travelers
endless
complications
##will
##asia
tee
surplus
appreh
vangu
volksw
turb
lahore
##rat
dignity
clause
plag
128
congratulations
obesity
##etically
immin
occurs
monica
30th
midst
evolving
scoop
attraction
threshold
sidelined
8pm
seekers
festivals
castro
profitability
volatile
hollow
setup
turnovers
sexy
aggregate
carrie
brokers
highlighting
settlements
rohingya
aunt
literature
unbelievable
mathem
café
##brough
##etz
gesture
vanguard
devon
identities
credential
slowing
##38
dangers
niss
adjacent
liquidity
fertil
neglig
##eon
##aye
performs
successor
confirms
650
slate
ethan
ambien
afrin
graft
snacks
notre
bolt
##reet
spider
disin
worlds
durham
mediterranean
christine
relaxed
suck
independently
cybers
affl
##arios
heck
julia
sally
spends
references
curriculum
gala
##46
##fut
brav
awaited
kidnapping
##case
boo
laure
poisoning
rw
rans
sv
congest
bernie
mysterious
hb
##ogr
blvd
idol
assembled
deliberate
yale
legion
assisting
##hawk
goodbye
schum
spraw
lacking
shutterstock
salisbury
recipient
sheets
##itte
##affir
costume
denial
goalt
quart
revenge
lub
submission
nepal
##eca
continental
volkswagen
cataly
elbow
##ergy
fury
monroe
edit
generic
sanction
prediction
paramedics
prospective
inmate
lucy
beside
##astrop
rapp
loop
gateway
exemption
traumatic
pom
##iac
spear
panther
sergio
salad
##ewan
gravity
pts
##acey
resistant
correspondent
##quet
huntsman
mitig
##ader
hog
yours
steals
robbie
benz
turf
shelf
1985
hassan
cens
cunning
macro
wondered
999
tariff
expenditure
eventual
##respons
worrying
toe
haig
bruno
##rest
stur
songwriter
##het
unst
mercury
unconscious
##bir
##affe
newsletters
yam
##istically
louise
interface
ventura
sip
chant
gupt
kenneth
sake
explor
ankara
watt
tournaments
surveys
guer
discrimin
reaffir
grizz
usb
teamed
##rov
travels
risky
environments
healthier
basement
pedro
evolved
wichita
ish
##chan
smashed
accidentally
rifles
therapeutics
cull
afterward
contention
##root
adela
tackling
##ulative
expose
imagination
g7
##ugs
competitor
unse
submar
ahmad
incorporated
bless
armstrong
impaired
restructuring
maharashtra
precision
##bod
##ivities
submitting
favourites
owe
resemb
contrace
thoroughly
norweg
overwhelmed
bliss
##icting
darkness
staples
mounting
monitors
186
savage
laughs
undersc
pumps
belgian
seating
stafford
occasional
bp
tends
00pm
surfaced
proprietary
##uy
downgr
coordination
7pm
##omic
suited
computing
edited
tribunal
snyder
##link
bradford
beverages
##agar
olds
competed
##ophob
machinery
essence
jill
doj
patric
##bach
salem
stroll
lining
leslie
doping
kang
##37
assaulting
hott
hein
congreg
precise
##oulos
tanks
cage
fs
shades
dominance
preferences
##icides
disresp
rockies
neighbouring
##bin
##arts
scra
rivalry
##amine
showdown
essay
poorly
hacked
jumps
embedded
buddy
compact
pep
desired
staffers
tore
beers
10am
hotsp
forwards
speeding
affidavit
wu
##rera
theor
jaguars
sho
adelaide
nun
tmz
infamous
fals
canal
##uka
mash
tiff
functioning
boil
swap
premature
reson
genius
samantha
arlington
conditioning
islanders
williamson
semifinal
##atchewan
clearance
hugely
exceeded
hw
deuts
insiders
saskatchewan
decisive
sunset
fuels
thrive
145
##books
disciplinary
merit
scoreless
intentionally
emotionally
##adan
£10
butt
allison
fixtures
uh
vari
hamm
nicolas
bans
relate
minors
fatalities
bie
stitch
blockb
archae
reluctant
finest
coached
ie
metab
embraced
presenter
muscles
sights
wears
allied
kg
anders
refers
mosul
##yers
magical
##ulates
geoff
##run
##ilion
orbit
eli
resolutions
reinst
isab
backdrop
moor
##long
glimp
guardians
glimpse
scenarios
##ager
highways
intermediate
##anyl
retained
routinely
census
atop
ips
humble
sergeant
natalie
ks
##agher
caz
helmet
unlock
petersburg
kon
##isely
freeze
##olved
##igma
halted
legitim
endured
elevations
ras
anfield
acclaimed
upgrades
filmmaker
icc
nost
essex
thankfully
kara
xin
##rec
prisons
deaf
warns
enrollment
kany
##ilateral
bidding
astrona
wrestle
enjoys
shaking
defam
reboot
helicopters
mariners
mw
providence
batman
##leep
unaware
smiles
##iatoday
lamar
humph
riy
##elly
subtle
hardest
##agne
bikini
sharon
endorsement
kv
immers
paintings
riv
##robe
recipients
substantially
##now
##opy
tempe
nigeriatoday
nigeriatodayng
sah
##gey
builds
alfie
griev
steadily
##foot
pruitt
middleton
rbis
philly
semin
counted
finland
guild
kor
##jee
##occ
stormer
defenseman
gunfire
nike
clutch
##heim
prolong
uploads
timberlake
zucker
##aults
distress
lesser
gunshot
allocation
imminent
##iago
unwanted
gin
bees
trailed
earthquake
rage
##ulent
resid
sergei
nn
##isco
##tse
statistical
recipes
lighter
conclusions
damn
stellar
##arius
crosso
aurora
iq
##sch
bounced
pp
owed
lyon
mercy
waffle
founders
joan
##ovan
tunis
rabbit
neill
scouts
successive
laughter
manufactured
katy
##sson
##urry
##izable
activated
jamaica
mish
correction
bedrooms
fork
heavyweight
ethical
abortions
monaco
##marks
indul
valerie
finalists
##onnect
flavors
poo
famously
turnaround
pyr
stiff
##opoulos
newborn
storyt
qualifier
gown
rf
yog
crook
jungle
fentanyl
indefin
topping
luckily
pens
vick
wand
##kowski
chry
hast
##mania
startups
editors
##iggs
##agwa
freel
robbed
admitting
misdeme
timothy
whale
socialist
bernardino
lud
1979
tricky
##93
surged
sentinel
6pm
ferrari
signatures
norwegian
sq
##iw
fraser
interpre
unanimously
commodities
magistrate
graves
hayes
##group
moz
pearl
##idy
permanently
tsx
woke
bro
grams
artwork
turnout
promotions
sta
instructor
superhero
asleep
greene
##steps
plymouth
tuck
##found
slavery
skrip
##uity
##sk
1983
embarrassing
dys
phillies
prix
##usting
glac
likelihood
switching
pharmacy
sachs
barcl
spotify
bella
dismant
belongs
##iens
marri
purport
habitat
outer
confessed
trailing
reservoir
midwest
tracked
xavier
pistol
##ached
distant
gospel
jol
##uan
##ycles
recruited
ipo
kurt
nissan
lc
undermin
basin
loses
##arians
duchess
offender
humor
qualities
unnamed
hilarious
##md
##erable
inability
touches
believing
bowls
moody
sank
delete
rounded
disturb
deportation
mered
##anthrop
sticks
archive
forbes
##advant
beau
hungary
##hani
mnang
reservations
hispan
lh
oath
southgate
huff
##uffle
lips
2030
coral
terrace
batters
reconciliation
feather
handing
courtney
ole
tak
##atories
infin
##ught
wheeler
satellites
wynne
aka
cay
peru
calories
americas
##beit
lender
##lot
chew
halfway
sabha
legends
streams
organizing
convinc
minorities
tamil
##casts
##ucts
indicted
planted
consistency
litter
ate
hail
malik
dum
grind
extrad
banners
premiums
commenting
sush
singled
examiner
flair
refur
rumor
##cester
sheep
##cci
labels
incon
ricky
##chem
mnangagwa
pestic
##upp
fron
remot
casualties
spillway
hottest
omar
pile
##ioned
constand
210
dodge
pg
cares
colored
##78
boring
hint
centered
poured
geneva
psychology
retro
hogan
##build
##kr
203
##adequ
traditions
##holm
bombard
inadequ
##attled
filter
andrews
xbox
attractions
adjustments
meredith
handy
undoub
##arten
sherman
merchandise
fuck
tosh
readings
complaining
troubling
panc
##berger
transfers
sprink
seller
redskins
matur
##earing
preserv
kathleen
##adena
braves
disadvant
##afort
grabbing
kohli
croatia
isle
chloe
blunt
##geries
albeit
attracting
foles
weed
skating
##guy
gymnastics
kkk
roth
expo
storey
telecommun
steak
safeguard
##ecd
restart
partnered
lucr
knicks
tablets
destroying
##ocaust
greeted
lucrative
prone
exxon
abh
ordering
associations
employs
distinctive
##onomic
##opic
inviting
mast
zen
##icia
##emouth
manafort
directing
slaughter
consolidated
chatt
vegan
##oppy
hil
##stan
teresa
billed
unsafe
kendall
hone
commence
halifax
collar
dismissal
searches
shelby
aberde
blo
indicators
photographed
unpaid
ix
torres
cooling
aisle
fas
pdf
ideology
reflection
aggressively
##reated
##hips
charitable
salute
footprint
geop
crab
rochester
innovations
##rs
##otype
holocaust
uncovered
reel
commuters
hitler
premiers
rapids
towers
unpred
fount
nons
barred
southeastern
morrison
terrain
softball
nikki
appetite
cunningham
malicious
mistaken
instrumental
##nat
spoilers
philanthrop
ivan
dumped
lis
betray
##itudes
pitchers
endangered
##sky
fores
prud
sequence
dread
vince
unconstit
irreg
teaches
methodology
bicycle
toast
vatic
##elong
elon
revis
schne
survivor
apt
dumb
hats
yong
##amy
shi
guine
enrolled
vandal
unpredict
schmidt
colours
distribute
billboard
treasure
uncertainties
monuments
##unders
surgeries
fairfield
##osport
capitalization
captioned
##etcher
prescott
punched
turmo
alumni
##ulus
vegetable
fitzg
precaution
wong
enters
270
ambition
breathe
relying
laund
rovers
reduces
nit
detected
quicker
quir
locate
reversed
reacted
accelerated
##vine
accent
flank
shipments
ought
oils
laughed
alarming
##lander
skull
factories
123
injust
emphasized
stylish
irregular
lover
sack
labs
turmoil
##ilation
##anson
##ansing
camping
##53
contempl
yo
##thes
downing
paths
ginger
##with
campaigning
void
precisely
examining
nb
linking
cognitive
##oos
##xual
solving
shutdown
flee
stretched
tasked
pulse
illustrated
echoed
##unct
downstream
dustin
##alt
cynth
webb
evangel
westbrook
culinary
wendy
tube
reagan
##maid
cardinal
upt
booker
trey
retwe
wildfires
manufacture
venezuelan
freight
umb
geopolit
dixon
abusive
informal
debuted
alternate
##oro
abby
purdue
molly
zimmer
chore
predomin
fixing
insisting
##ml
unin
blaming
revamp
pvt
pepp
behavioral
boundary
1982
##nan
beans
knocking
graphics
##96
brass
118
southwestern
subjected
vatican
budgets
enrich
cw
116
mcmaster
dilig
pizz
christie
walt
blasted
terrifying
torture
baghd
inex
cuban
leaning
cristiano
codes
detr
sixers
classical
magnitude
renovation
positively
##ulin
scare
1968
collaborative
miguel
mats
amph
miners
identical
inequality
diplomat
isolation
dir
stern
adorable
##encia
gloves
credentials
aly
##kill
shipped
ala
physics
renewal
##mb
closes
bargain
pab
servers
ntv
wit
contests
hawk
repe
crashing
colony
fatig
##aters
multimedia
walton
corresponding
##chy
flown
1970
fitted
sacked
##page
airs
specialized
trustees
objections
organisers
sput
##owdy
floods
outright
reigning
dancers
9pm
ani
judging
circles
barton
ain
falcon
kinder
obstacles
dud
jae
wors
##atched
junk
hurting
mosque
##56
##iman
shoots
grandson
##arf
imposing
barbec
##future
##atable
germain
winston
potatoes
waist
erect
amended
3pm
alp
lacks
undisc
rica
uphold
##archy
bluet
weekdays
perpet
unhappy
mckin
announcements
berm
interpretation
stack
arra
thriller
colorful
serbia
undoubtedly
wallet
ullah
indexmarkets
initiate
indexmarketsresearch
mccl
contested
barber
devil
mccorm
pasadena
dv
pont
rebuilding
spur
skirt
derived
##ahah
charm
loads
cathed
cnbc
rafael
bpd
payne
consuming
biology
monitored
gotta
ket
##station
##trump
apparel
ez
televised
encountered
bis
pors
concealed
evolve
yadav
£8
mcn
regulate
ignor
duff
##dc
##42
##rain
posters
philippine
pornography
##ennan
surrend
occurring
phillip
alison
explicitly
gofund
22nd
braun
retaliation
recurring
cybersecurity
auck
wield
rainbow
naw
##eer
nyp
28th
calculate
refriger
bye
newer
##ovich
hitch
##houses
manit
swings
enhancing
allocated
##amo
marquez
calf
grandpar
stranded
prote
layers
tolerate
damp
organize
reno
bluetooth
##gence
benefited
grim
challenger
jewell
jacqu
municipalities
lukaku
76ers
threatens
hammond
justified
bould
hinted
seafood
cardiac
auckland
lance
##48
trek
heartbreaking
##arta
coordinated
caucus
composed
brigade
##uer
##uese
detain
eliminating
kanye
jammu
##folk
aggression
likewise
##otti
tags
ineff
stain
##ichick
careg
detailing
supposedly
forgot
cec
peacefully
2b
23rd
determining
unconstitutional
depot
emailed
lindsay
wyatt
precedent
##alay
flats
##ava
disl
patron
recruits
roland
cory
##ondo
dab
ya
##nia
snake
composition
portuguese
ethiopia
##add
##ounters
nuts
suburbs
##ye
confirming
strengths
dunk
defeating
reliability
t20
trap
daddy
gofundme
ftse
athens
amn
##uffed
kuwa
kess
vicious
##eni
stairs
##ovascular
von
unm
contenders
flyers
agreeing
##esp
creators
praying
##tar
##bone
hyder
berth
##igo
degr
monte
resilience
disrespect
bs
violate
cigarette
catalyst
warrior
lionel
revelations
dawson
encounters
bullish
dominic
anxious
toddler
clarks
manila
belichick
sharif
standoff
kier
resh
processor
liberation
toughest
chevrol
##law
interfer
succeeded
autopsy
geography
cdc
turbo
inhib
cultures
middlesbrough
trin
##abouts
##anti
tuned
hornets
##giene
stagg
johns
knees
lacked
cooperate
pale
##aders
##ugging
1976
tightening
##proof
##cation
##hear
atlet
europa
hygiene
vanessa
railroad
counseling
tactical
lancaster
loot
throat
##31
##eem
1981
cynthia
##ée
johannes
exterior
headphones
experiments
stefan
diplomacy
##table
elimination
easing
marion
##screen
shelves
sophie
oven
bypass
quantum
jinping
chevrolet
##kind
##orf
glou
volvo
cathedral
##eson
raids
genuinely
conferences
##game
bean
immense
hurdles
4g
##drew
verbal
orthod
volleyball
fro
eyew
washed
fitzgerald
lighth
##osity
wasted
buys
statute
engulf
overseeing
sie
##ernick
kathy
sungl
##aways
homem
##wright
amendments
paw
inflammation
fou
insurer
mariah
santos
intriguing
bn
hick
##mental
upward
skel
cornwall
##ecraft
indy
larson
##online
slice
standout
advertisers
byr
##avel
companion
refusal
qualification
potato
stumb
##olph
diane
huntington
niel
surviving
faithful
mls
aligned
silly
thie
bieber
##park
##bee
combining
baking
apex
meddling
patricia
mayo
redevelop
rented
listened
adapted
##ieth
adjustment
##fly
kiev
phu
navigation
deutsche
##dar
phd
smash
requesting
abdullah
carnival
gavin
withdrew
fletcher
attends
milton
occupation
hazardous
mcil
crushed
wished
reps
bleacher
jp
lowering
tomatoes
quoting
vance
##undai
lineman
plunged
nolan
nostalg
pec
brains
correl
crus
##ollo
cyl
hib
##astically
intact
lowe
##brand
bolton
hicks
broward
neglect
lia
marketresearch
attackers
assumption
jag
anat
##ulator
leone
chairperson
##ofi
mentality
intercepted
uganda
baked
fen
##atan
alder
##esha
adventures
lexington
cairo
presumably
blockbuster
##issance
appliances
comprised
concentrate
orientation
##hydr
##graves
cruelty
groom
allan
intake
distributors
vault
##ifa
##losed
##airie
directive
pelosi
mansl
maiden
assail
declines
inquiries
##htb
dos
hij
##inas
hyundai
sprawling
saga
militia
stair
##imeter
suing
documentation
improperly
dund
shook
islamist
pursued
knockout
obtaining
demonstrates
bast
mari
admissions
kimber
tasting
paramount
hashtag
manslaughter
binding
yang
##quit
##rique
australians
evaluating
assaults
temp
partnerid
negotiated
punished
adaptation
zuckerberg
zack
kindness
cush
reilly
sci
observe
1972
purported
##oka
proxim
accidental
reminds
backgrounds
raced
nichol
atletico
mann
landsl
hospice
existed
tractor
convincing
##ulture
gupta
##live
##agara
brace
disastr
550
veto
puppy
oracle
famed
portable
promotional
ignoring
aberdeen
gy
contracted
850
earliest
wellington
212
1977
vacu
morocco
lament
ud
##inum
publications
188
##owdown
supervision
mla
##98
##ophone
density
f1
##erse
accuse
caes
hurts
arbitr
itunes
infield
learnt
advancement
kaep
nadal
nokia
willie
trader
cambod
jd
##elman
hash
motley
ramos
guarantees
gratitude
weber
problematic
imagined
##court
invit
cran
polled
##eka
happily
##itorial
romania
##aland
tres
sep
harness
peaks
##angelo
accessing
intervene
undefined
shit
##ovo
##rik
##omon
burgers
kt
mald
vind
mogul
##ptive
##rooms
shouted
etf
belonged
##erness
portal
fellows
constituents
marketresearchfuture
aaa
carers
nearest
metoo
forgive
plaintiffs
sensitivity
£7
constraints
accusers
indec
educators
digging
pinch
alerted
hype
##osures
proves
superst
##atorial
messenger
fabulous
somalia
mclaren
nasty
kickoff
marching
yeti
pals
consort
destiny
prevailing
ransom
##pear
##erm
knot
126
155
sensational
aus
ioc
katherine
continually
subd
silk
undercover
wig
slay
qualcomm
fundamentals
pavilion
hydrogen
mesa
##gone
prejud
assurance
chestnut
##anova
bride
totality
texts
clarify
##47
ori
cocktails
##once
##asse
##formation
##geon
koreans
obsessed
spectators
emm
24th
kaepernick
rory
technicians
paperwork
adopting
lava
gifted
liga
##nie
##akar
packs
radi
bolster
float
pierce
tricks
extremists
web1
evaluated
lobbying
inconven
bourn
uw
inh
notch
##quin
irma
2024
semic
hispanic
sunglasses
##iak
stif
resumed
##ylene
dugout
kot
hallow
baham
##illery
isaiah
mouse
wary
architects
cardiovascular
autoplay
indis
moms
mali
urgency
##master
neat
donaldson
260
males
bits
reacts
regina
valencia
baton
automakers
pipes
interception
villain
ci
ensures
efficiently
conjunction
fcc
additions
virat
personalities
lodged
disastrous
lsu
overly
belfast
##yside
sedan
wander
realdonald
sensation
sideline
catastrop
pearson
elephant
catastrophic
punt
unauth
rigorous
preservation
realdonaldtrump
##function
eden
keyword
reopened
magnific
heightened
##ashi
cooperative
fisheries
schneider
festivities
forests
runoff
lauder
browse
##ications
upheld
cared
nickel
wt
bray
lightly
surprises
punk
tracy
canber
outfits
contempt
##bley
gangs
stalled
inevit
stray
youngster
practition
bryce
ump
unint
##aires
burk
observation
robotics
fernando
tossed
cedar
pivotal
##had
##ospher
costing
instructed
##ulsion
enquiry
mell
##gard
boise
johnston
##inging
snack
niagara
das
newman
indie
bloss
bombers
lithium
##sten
acoust
speeches
outrageous
usatoday
##osition
coating
payout
denis
26th
forefront
measuring
floral
1974
alley
##cepts
volcan
treasurer
osh
dispatched
rees
leah
expired
coins
cheated
organizer
symbolic
clues
doyle
busch
secretly
wounding
##addy
chandler
unreal
meyer
fluct
##after
888
embarrassed
##matic
afl
surrender
pund
contestant
assessments
philippe
##points
terrific
poul
sway
sided
abrupt
northeastern
metall
tumor
interm
telesc
niche
accompanying
##rise
chun
eco
executions
frontier
pilgr
hayden
inadequate
bach
ample
strangers
presentations
structured
decorated
lecture
##ahi
origins
infectious
##illes
phuket
canon
surch
conform
nooz
maver
ours
workouts
deferred
bunk
roller
platinum
hypoth
proximity
danish
surgeon
amenities
amnesty
constitute
vocals
versatile
toshiba
##endale
terrified
aa
##usa
marched
portions
fernandez
##opr
pairs
kell
ngo
rocked
animation
rosa
molecular
irrig
##feit
fringe
rivera
submissions
hawkins
##oda
concepts
nypd
orph
filip
freely
municipality
gum
##obs
annie
quantity
altered
ampl
costumes
breakout
garlic
layup
gc
naming
##bart
incompl
paraly
igu
##ourse
affection
specifications
1973
cartoon
trustee
observations
##rated
comics
setback
disgrace
undisclosed
##amic
##ulk
vijay
garda
##ibles
secular
119
situated
billboards
connects
extremism
lol
wn
chim
couch
participant
headquarter
hyderabad
pensions
tina
congo
owning
cocon
jerome
commemor
noel
##ocity
revive
##agers
abn
oneplus
answering
##writing
scotia
rogue
airplane
##osion
cans
sandra
abraham
overturned
grandparents
mcilroy
pics
remed
classics
wardrobe
##ometer
balloon
sneak
canberra
##jet
##uto
##dened
lonely
mcmah
shields
vigilant
administered
5g
intol
defensively
arrow
132
canadiens
waiver
consequence
##fil
##chool
harden
jc
##zman
suspend
judy
certainty
hiking
coveted
##isse
regain
arrivals
sundays
##swick
geopolitical
dul
##economic
margraves
dispr
extends
residency
recons
jackpot
##nal
slo
ramsey
abbas
##owitz
guilt
infring
eugene
122
rai
defining
semiconduct
##aram
chich
seag
##uding
carriage
sind
##fi
handic
gallon
alfred
##pit
byron
slowdown
activate
territorial
2026
zamb
##kok
intervent
boyd
oceans
##140
seated
stretches
magazines
litre
perkins
dont
persecut
disclaim
thieves
bournemouth
nak
vouch
wishing
integrate
pools
destruct
ew
##ologies
audition
schedules
scholar
contaminated
brake
braw
consc
windy
##marked
crafted
norfolk
11am
expressions
oversees
premiership
##eco
reef
plastics
boarding
##vest
sheikh
##ishes
192
metre
gallagher
graduating
laundry
gle
nk
fraction
usher
pean
124
pops
benefici
shakespear
cobb
purse
rita
invision
##eke
summers
ou
vogue
ambr
strained
##shots
##heads
akin
outgoing
##ipple
hunters
comprises
narrowly
misdemeanor
enact
cosmet
tapped
airbus
misses
eurosport
stip
mint
27th
verge
swiftly
bcci
exams
##ieu
promin
kingston
1978
discharge
distinguished
ik
jpm
expans
presently
females
diox
pune
##pec
tomb
liu
pelicans
##eto
shab
##ulia
jointly
herbal
saturdays
##boat
malware
applause
##patrick
##oise
outsc
monk
whereabouts
##places
capturing
cuis
guinea
unpredictable
halloween
##fect
thames
yearly
handles
eyed
##39
carm
champagne
pushes
evacuate
oscill
reliever
chenn
donovan
concessions
armour
danielle
jakarta
cellular
firefighter
lte
memoir
uniforms
revelation
yas
##zan
frames
promotes
karachi
correctional
chefs
observatory
##dings
ballet
anticipation
homemade
fost
fian
##inis
##orig
handc
testament
organs
alberto
whitney
plagued
clips
##iji
##glom
assassination
lied
monop
improv
ladder
##note
brunswick
nielsen
##rose
chir
##ectives
##ultz
frankf
tol
##ials
##gee
incomp
herman
condemning
overlooked
inhab
individually
translate
9am
integral
compromised
shortages
melan
proudly
disruptive
accomplishments
belleville
pud
##ovak
donna
rag
##ourg
varied
kinderg
skeptical
wald
offenses
peel
slap
debates
vars
entrant
shaun
##ocese
quo
colder
implied
cautioned
relieved
fathers
##mines
##avia
unre
glove
129
cannon
##otypes
bisc
##vet
ars
arise
symph
literary
vacuum
xl
##kett
mccain
planting
##uers
pulls
cbi
ike
feast
societies
departed
campuses
recordings
allege
congestion
##eze
beings
sag
wem
notices
imprisonment
fb
##esco
beacon
swall
malawi
cows
xxx
consultancy
##iesta
330
publishers
beneficiaries
cout
singers
##rella
aluminium
surfaces
functionality
erie
nephew
##via
addict
msn
nigel
kaw
##iating
##anagan
prairie
honoured
positioning
outfielder
##asis
stump
fairy
undertaken
fresno
eased
parson
insert
##ouring
popped
tuc
##estoppers
circus
photographers
resilient
tongue
proposition
rhino
rooted
insuff
oilers
patriotic
concise
mortality
dioxide
whopping
serie
yac
separat
bengals
catalan
klein
fragile
lifelong
bahrain
##eur
conglom
therapeutic
martha
ians
##68
sanjay
designing
padres
tyson
inconsistent
##stra
##pps
##iko
sliding
succession
dunn
perspectives
labeled
delegates
stamford
##fax
##wi
amir
netted
pratt
crane
underwater
banker
expresses
outsour
triang
thrilling
discharged
manitoba
lomb
apollo
##getown
bashar
consortium
fors
wast
scoot
##iza
typo
florence
housed
strengthened
microb
rewarded
nude
inexp
205
hobby
##ivia
automobile
semester
tesco
prolific
hut
tata
chased
hailing
halls
mourn
31st
considerably
quarterfinals
tand
apiece
##uchin
railways
bermuda
outsp
##izers
maya
communicating
sponsorship
rupees
emmy
envoy
orioles
mia
zar
goose
cluster
grit
lowry
staffing
consume
ordeal
nicholson
prey
121
propose
dresses
prohibit
joking
saunders
bankers
265
ensured
recognizing
preceded
farewell
barclays
welles
blasio
nonsense
dried
embracing
salvador
rouge
vitamin
hoffman
gs
##etical
undergrad
##annah
humane
cheers
spacex
##oding
herb
horiz
fatigue
lut
##isible
##stad
spite
smack
packing
##ados
##quis
respects
##eshire
cycles
parenthood
kum
downside
insane
##liner
constable
berkshire
injustice
plains
expires
quin
masses
29th
bargaining
fict
anush
##empl
willis
bowler
##laus
##face
shea
##oya
socks
taxation
215
hampton
condemnation
illicit
reneg
varying
traction
##ocument
50th
optional
practically
mechanisms
##41
thanksgiving
watford
tiffany
denounced
fifteen
subsidiaries
norms
##soever
annex
reasonably
creatures
kub
substances
##imburs
lup
reset
phenomenal
dorm
probable
skiing
consciousness
yelling
##change
cram
injunction
forecasting
fp
fares
fairness
verb
scholarships
byrne
##efa
nou
##hurst
moisture
homelessness
goaltender
wholly
blanc
goodman
interfere
wax
grapp
nicely
bum
tara
##ainted
slogan
debts
macdonald
1975
hanson
##tw
whales
outp
flies
222
voluntarily
inevitably
baj
nutri
exploitation
reimburs
##sworth
portrayed
##ieri
warfare
shortstop
settling
cleaner
rope
tir
jeep
undocument
shelton
dumping
dang
##ingham
sailing
antar
bracket
elegant
fountain
undocumented
ub
##ontinental
laden
1950s
abnorm
goo
collided
ballots
elliot
plunge
##card
spat
cob
disasters
christina
instruction
jenny
invasive
emanuel
##fw
agr
incomes
moto
batsman
magnificent
playstation
classrooms
headquartered
##mn
sixty
dragons
wembley
builders
variant
patrons
portsmouth
reyes
bates
woes
##kan
##edo
clare
distraction
##etto
happier
sourced
chaotic
jacobs
incomplete
##poon
globes
replay
acl
##udge
pasta
widow
##onna
deadliest
##forward
prostit
miz
pediatric
touted
soared
explored
massage
assistants
khl
metrics
unsure
buffett
weighs
illnesses
schumer
proteins
varsity
exempl
accred
hurdle
empowerment
sputnik
hc
shapes
governmental
cms
designation
bangkok
bere
pact
looming
segreg
ceremonies
coconut
onc
##atham
curling
picnic
corrected
pest
##z0
##azed
cald
paige
##uffs
##iciency
reunited
stalk
stems
plowed
develops
contentious
tailored
undertake
cyrus
£20
##mill
wah
##anas
enacted
harr
georgetown
apologised
sympathy
bakery
reconstruction
tran
suffers
madness
mindful
##ayi
brennan
filters
somerset
##´s
##iani
cancers
literacy
escalation
shores
strapped
tendency
yates
recount
whatsoever
rooney
augusta
exploit
##fts
donating
pog
##journ
surcharge
fries
proposing
sovereignty
soaring
refin
interestingly
escalating
supervisors
xx
##osta
servants
shutting
telecommunications
##eting
skid
##manship
staggering
shakespeare
chennai
##usk
##shaw
welcomes
assure
midter
selena
4pm
##check
damasc
bulletin
reopen
maturity
johannesburg
playground
distinction
watkins
bundes
1971
tyres
rpfl
digits
##oncé
politico
counters
defeats
mcgrath
spearhead
kuwait
##jans
boris
inputs
muhammadu
aspirations
5pm
ctv
##orp
encomp
##ciation
zoning
##arium
crisp
brotherhood
jedi
##uggets
ming
claud
redes
confusing
jewellery
sore
stoppers
basics
improves
pairing
##cripts
reservation
##nataka
beam
backpack
customized
kristen
consolidation
timet
steer
vibe
mnuchin
prolonged
interventions
##just
cried
301
particles
finalist
flagged
guitarist
fist
gly
caliber
wonders
##iper
kne
fielder
incorporate
pistons
huck
280
controller
atmospher
##kirk
uefa
zak
curios
prisoner
cleaned
listeners
##thritis
unanimous
##times
##67
##asan
advising
##aleigh
magu
paulo
oht
spinning
unsuccessful
damascus
ds
jok
keyboard
disappearance
congratulated
##roots
hag
expire
clement
##hamed
staffer
wolver
barbecue
##fp
##orah
personalized
attributes
jumper
uploaded
auditorium
lend
wives
£30
gloss
mae
catering
progression
trespass
rooft
tales
enduring
judged
jorge
backstage
##enny
competit
karnataka
popping
saus
drown
salon
nsa
shaping
undefeated
thwart
seals
tribes
wen
exac
adele
thoughtful
bulgar
gamble
coyotes
frankfurt
hond
s8
spac
growers
##ophe
characterized
rescuers
fashioned
masks
dancer
glow
##keeping
##yton
##isher
abstr
cracks
airstr
stretching
avalanche
rena
##raj
144
listings
forem
##araj
wesley
demolition
cind
##ono
spani
##pleas
nicola
dipped
napol
##stead
exacerb
poc
##base
saddened
traject
##ishi
airbn
envision
greenville
palestine
gan
##turn
demographic
pablo
a3
##jection
##onies
clashed
beautifully
swims
cracked
categor
showcased
##61
##inke
costco
liberties
outspoken
wo
grasp
thriving
freeway
encry
crimestoppers
1969
relentless
iw
husk
nuggets
socially
straightforward
bonuses
therapies
inspections
impeachment
##rt
##uner
broch
divest
##mington
sands
dominating
altercation
##vie
##igs
suarez
##ipher
elaine
310
rewarding
bac
alib
economically
avenues
hansen
indonesian
buzzfeed
wynn
feminist
hm
keral
##lyak
scandals
concentrated
##endi
ames
overhead
scat
trainers
fraudulent
submarine
##names
##stick
adoles
sanofi
misin
installing
nursery
certificates
recognizes
sincer
heel
accepts
viewer
materially
cubic
stoneman
##mings
uss
delicate
reductions
utilized
##ignment
attitudes
institutes
stressful
affirm
sculpture
jub
##ango
realm
harley
mustang
garnered
nah
restraining
##iotics
fax
##buds
homec
travellers
cooperating
fishermen
disposable
##cane
onion
shack
parkinson
responsive
##sterdam
##edict
boxer
##gowan
soda
##mag
##rina
competent
compliant
liabilities
langley
apologise
fingerprint
marina
angles
shutout
hew
flaws
1800
webster
noozhawk
##43
recap
138
airbnb
##orship
##ickson
trooper
chichester
##soon
analyses
antibiotics
leigh
humili
kazakh
chorus
foremost
prescriptions
##ija
prohibition
gerald
amsterdam
disreg
concludes
predicting
seizures
kislyak
baghdad
enforced
watts
minimize
libraries
##uve
sparks
##usters
passer
demonstrating
bore
nitr
armor
destructive
kers
breit
termination
dart
##rent
##acas
abusing
villagers
koch
hover
dee
165
geographical
ohtani
##imental
behave
vienna
uncomm
discovering
klan
buttons
dictator
sochi
1500
##aneous
401
marker
savvy
porsche
##bies
invented
allowance
##prints
nairobi
dare
raleigh
shap
pew
barca
unexpectedly
squeeze
sutton
hust
pony
candidacy
creditors
grassroots
cryptocurrencies
rats
##isman
strokes
elvis
valent
killers
yorker
erosion
beaver
persuade
busiest
specially
denuclear
catalonia
##icable
factual
grandd
2pm
bally
shiv
marj
##istries
hourly
egreg
laboratories
anonymously
composer
autonomy
surrendered
ranges
keny
##echnology
kerala
jugg
spinal
sioux
##ubs
partnering
fiance
rn
##loo
elk
mixing
kelown
khal
gossip
ji
##hacker
##63
stokes
emphasize
respir
crosby
cir
tories
hastings
kd
##escent
toled
amd
##wayne
takeaway
frederick
shred
shining
circular
tonne
slew
grabs
pouring
algorithm
huss
zver
##icism
##bern
eva
##afa
##emar
strive
specified
189
pw
reins
sap
gron
slovak
141
policemen
moose
dessert
freelance
3m
ion
sark
therm
salvation
umbrella
##odies
acoustic
##72
unic
##avid
##izations
mayfield
professionalism
pharmac
reigns
ler
lily
framed
##guards
punching
misch
museums
defamation
francois
disgusting
predominantly
##arty
brag
256
plead
intra
academics
exceptions
newark
poles
##being
battal
utilize
inaccurate
fidel
claude
nerves
skripal
distract
blackhawks
circulation
porch
enthusiasts
shale
coloured
negatively
thunderstorm
vulnerability
predictable
overwhelmingly
bind
##tel
##elia
chal
##essional
adher
valve
maggie
cosmetics
zverev
clara
socio
##liga
blazers
##09
empathy
purely
storytelling
irrigation
symphony
ruff
receptions
shrine
brakes
peek
roh
reinforce
discred
santiago
bury
optical
victorian
voy
##ensual
blitz
extensively
ashes
acknowledges
inspectors
engulfed
sik
ashamed
##ogram
##ounter
solved
excer
refinery
influences
##habi
inherited
tc
robb
gerry
sans
taj
wto
##zes
upbeat
##broken
responds
##ilo
##amps
refuses
entrants
tighten
ruin
curiosity
##tingu
retention
crosses
misuse
deriv
appropriately
caldwell
flesh
farrell
deported
kabul
hos
##inational
needle
landf
homest
##ieces
punct
algorithms
cheryl
dew
descend
##hh
extingu
untr
##ensed
emo
breeding
obl
developmental
definitive
stemming
bahamas
lent
mk
standpoint
angus
trojans
jurgen
ebay
handout
arresting
beyoncé
casc
staple
chunk
grounded
nim
charming
harare
madden
negotiation
comfortably
judgement
zomb
advertisements
necessity
mortar
translated
distributor
suzuki
lank
mong
sears
stopp
nex
amit
realty
swath
hondur
##isers
clo
indoors
countryside
premise
multinational
godaddy
moses
mtv
##making
ort
##affer
excav
##olves
ministries
authored
lure
stef
parkway
poem
roses
fundamentally
comprising
unrelated
kindergarten
toledo
ree
reese
contend
metric
stuffed
ingredient
gors
gowdy
##lists
##wives
proactive
buoy
tayy
##andro
courier
obstruct
compatible
dnc
##bold
cola
excluded
inquest
##icz
terminated
rant
rhimes
linux
zanu
##isen
bez
adid
brant
compounds
##official
typeof
1965
reproductive
intercontinental
uncommon
monarch
edmund
calvin
sewer
absorb
msnbc
##dan
mcder
escalated
poker
neon
##assed
gradual
kidnapped
arbitration
dude
mata
thes
##enos
sabr
defenses
utilization
chrys
nawaz
thigh
successes
cj
foundations
revoked
brooke
tagged
aesthetic
disregard
##acity
enrique
marketbeat
wellbeing
villanova
mortg
rejection
imperative
cosmetic
mgm
egregious
##iology
##rc
induced
cindy
##qa
bronx
showcasing
bundesliga
aet
gast
underest
downhill
djok
rejecting
jod
wylie
##isley
hefty
belly
##orns
##azi
##ussia
driveway
stormed
cuisine
##hist
##emon
couture
newfound
orb
disgu
##reports
peps
##avi
privat
footballer
##erting
##iga
ceos
pumpkin
lesb
squeez
thereafter
branding
dissent
humidity
arson
amer
depressed
franco
affirmed
mesh
thrill
bodily
jennings
##abh
##track
##berries
slave
criticizing
forged
149
prosecuted
mund
tunes
smoothly
circulating
harassed
inventories
gos
##cano
stigma
shim
mccoy
veterinary
alexandra
trajectory
hue
##ovals
##gro
10pm
glance
deadpool
cracking
kissing
kun
##71
##asket
##urg
arrange
fractured
lng
##idia
freestyle
respectful
enthusiastic
shen
imf
roch
spanning
mahm
populist
tread
barkley
fianc
##ullo
collaborate
sparking
disrupted
undertaking
bentley
pras
phel
darling
tanner
djokovic
staging
abdom
closet
coca
rink
##ifics
slater
snowfall
icy
anzac
hints
##wen
##urable
##amar
throne
policymakers
honoring
traits
preserving
remotely
zion
tenant
rodney
subjective
morton
##olis
##avis
sentiments
eyebr
sandwiches
lively
assessing
sober
glorious
##ricks
inspir
memorand
felix
culpr
detonated
##ograms
##gars
trout
arbor
overweight
##icking
combines
abundance
shaken
##elyn
ecb
freak
rebell
maximize
##enzo
orthodox
disprop
outings
metr
marvin
##ophies
burnt
reacting
gag
##emia
slash
protects
mighty
avenatti
##14054
##aney
scotts
akron
intoler
parag
faction
psychiat
tenth
##7414054
yacounter
yacounter7414054
##arus
unpr
carb
sadness
architectural
##tic
revision
archbish
1964
otc
tulsa
dense
crest
concord
excuses
madh
marshal
jarr
##leigh
rover
internally
stockholm
behaviors
satisfy
feasibility
grizzlies
bake
biod
kip
##abi
aborig
pressured
mcgu
divisive
sonic
influx
warsaw
exhausted
diab
ivory
##amel
communal
erad
baylor
doubling
ounces
prevents
amounted
toc
##ibe
mang
slog
##goers
stationed
embry
kenyan
selections
cpi
lum
footwear
blackburn
fastball
##radio
mits
powerhouse
farther
compares
acknowledging
##fir
spree
overc
##ceptions
ousted
seize
edges
statues
receipt
griffith
eyewitness
dg
##mind
##fin
##alous
##elin
defect
365
unfairly
xiaomi
bair
dhabi
onboard
##urally
realizing
pipelines
pend
rizz
##utory
guides
pleading
racially
lancash
wiped
tayyip
##itures
##isal
commute
schul
avoc
cud
mersey
toby
glitter
ernest
fah
demise
133
smallest
favored
freedoms
exotic
barring
confron
shotgun
fallon
malta
historian
torch
prevalence
sketch
nir
sunrise
bathrooms
diagnostic
##otta
allegiance
downloaded
crowned
upgrading
kogan
afor
commanding
lingering
##pi
weaver
goff
chron
alcoholic
uniqu
emergence
insulin
prototype
pumping
timetable
vaugh
spieth
unequ
carlo
disproportion
##olk
donnell
##izzle
nicar
siem
weakened
cuc
monter
flir
respiratory
ding
##rej
shank
alonso
logical
cbo
lumber
tant
##armed
heir
refined
fortunes
##estershire
syrians
nadu
conscience
wak
tomato
odor
pell
vie
whitt
restoring
burlington
cheering
maxwell
2000s
preserved
##iegel
##hra
##urious
fry
##uled
groped
betty
##ementioned
finalized
freeland
indications
swinging
aforementioned
mama
##hampton
paced
ruby
##erman
sword
constructive
slides
berger
adequately
jpmorgan
hulu
rin
##atem
##iona
alger
interrog
revital
albu
insufficient
cured
woo
##ifiable
##hern
320
gn
kob
skir
1966
perpetrators
cottage
minerals
5m
##vu
##ivo
grac
libyan
cornell
transforming
sene
chalk
outline
tactic
karaoke
foresee
##asth
wink
##sty
statutory
ramadan
quantitative
cumber
tangible
memorandum
4k
tighter
pert
downward
##des
##opal
commands
sync
poisoned
slaves
speedy
pne
vag
weddings
carolyn
symbols
ses
ti
##bys
colbert
southbound
mcgowan
devos
scouting
smuggling
##querque
harold
systemic
crimea
sinking
##log
frater
gestures
surroundings
albuquerque
earl
##writers
methodist
reconsider
q3
smarter
famer
redempt
caleb
mccr
unsett
clarified
unwilling
coronation
tunisia
wildly
shrink
magnetic
abbey
conglomerate
h1
yacht
##hift
##fun
gorsuch
kom
##frey
##89
exited
exposing
cait
varieties
curated
franchises
bick
##69
##ongh
exagger
specify
activism
boulder
##rod
chilling
##osexual
homered
jonny
parenting
intentional
whiskey
cena
kau
##bons
##enza
defends
lancashire
##bot
##jri
loos
templ
bowie
beyonce
##iston
##enched
##biid
borussia
foam
bishops
clifford
hutchinson
##ysis
potent
baggage
mechanics
protocols
msc
##lib
##elight
##ryn
builder
oaks
##awar
avon
tomlin
##bard
inception
herrera
##eye
pats
escalate
surpassed
metabol
atmospheric
aster
sulf
##hel
##idad
spiel
coh
volcano
##lifting
reaffirmed
gunmen
prosecute
eclips
dalton
gentleman
allerg
commended
phant
privileged
telegram
kemp
wj
spoon
perimeter
estates
##roads
borrowers
meadows
extradition
rematch
ironically
microsc
lur
readily
augmented
chaired
crumb
transcripts
weston
lambert
upstairs
alvarez
gently
##uu
prow
##emma
216
spells
sodium
brittany
homecoming
centennial
sacrific
bribery
##bilt
##user
teaser
parcel
lasts
satisfying
demonet
lue
tapping
##hole
queer
£100
ruined
##troll
degener
papad
disqualified
ches
airing
derrick
deduct
1960
cfo
glamorous
seizure
legitimacy
shattered
##actic
newsday
laurie
##iated
quiz
wraps
##kei
proposes
altitude
contingent
mcmahon
yere
##mino
lifts
msp
issuance
renaissance
##andra
enlist
irvine
gunners
eaton
fulfilling
parameters
thirteen
falsely
readiness
latino
lash
advises
ecu
mattress
enjoyable
spreads
guiding
lungs
tril
schwart
postal
specifics
##offs
pinned
diluted
chopped
regrets
penned
chrysler
archbishop
eh
lax
ned
xen
##pes
##vance
impart
flame
chemotherapy
daytona
##las
ans
##ocation
lawson
raft
##oxide
nyz0
tj
undergone
bullied
##rical
atomic
embiid
charism
unusually
boutique
guerr
##lem
casualty
refreshing
une
mcfar
irwin
vanilla
hypocr
breitbart
moin
##sein
workload
greeley
cooks
mandated
carlson
##worthy
utterly
chung
northbound
practiced
mitigate
assam
landry
3000
puzzle
redevelopment
##jriwal
rih
colo
promptly
kaiser
napoli
arun
cro
ivy
illustration
livelihood
##journal
yerevan
fiat
kins
rv
wb
##itan
misled
unemployed
##bag
withhold
drif
carly
supplements
approvals
dishon
impairment
##lia
cara
paddy
savannah
lavish
##kal
impending
patio
qualifications
explosions
sanctioned
fren
pickford
volunteered
proceeded
adjusting
##73
andr
ops
clarkson
mh
rl
applicant
pavement
za
ons
hemp
monsoon
attain
epile
scorp
ribbon
nvidia
knoxville
##eet
possessing
katrina
contamination
instinct
##ologically
discontin
bounds
shaz
twisted
coats
passive
celebs
relaxing
##eyer
comparisons
bunny
cbd
420
peck
wigan
ritual
dwayne
lago
nix
pint
tib
##64
disciplined
colombian
ribs
sous
vw
suscept
elevator
breaches
##kirts
pneum
##icked
billing
engineered
shuttle
pederson
##abil
##ogg
accuses
irrespons
ingram
fulfil
hitters
##iferation
parc
139
texting
odi
imagery
rumored
herds
baseline
golfers
bernstein
understandable
foil
dz
crushing
nationalism
bites
scranton
spectacle
nikkei
browsing
blankets
hort
shak
##osit
churchill
kicker
##keeper
aetna
##city
##fu
gloria
woodland
##onnected
coutinho
anushka
dazz
##fred
endure
gerard
misunder
lads
hank
graff
mons
centric
instability
occupy
santana
buns
backlog
manor
storyline
cels
kp
tart
deed
##quest
boe
avid
greenwich
lifes
biom
sneakers
overlooking
wrestlemania
##idu
arv
##ollah
relates
protested
biased
rallying
rosem
filmmakers
jeopardy
waving
guatem
orphan
hoy
##orial
probability
tackled
exhibits
thornton
apprentices
alibaba
mortgages
norton
##lair
##amon
grape
groping
discomfort
witnessing
peanut
cron
updating
creature
replies
gregor
boro
render
yar
##án
##ido
marines
roadside
easiest
indexes
omaha
cyprus
suk
booming
passwords
vanderbilt
db
sig
##hed
##sbury
##irable
trac
possessions
equaliser
rentals
caregivers
honduras
interrupted
##lamation
rampage
vietnames
ricardo
vietnamese
nif
##sted
roundup
cummings
andres
##ayo
##uming
retaining
##2017
jonas
tucson
senegal
dand
clue
firmino
parap
capita
waterloo
tightly
plaintiff
bung
dwell
jh
##gon
##beck
##agua
manley
swamp
rauner
bowman
balc
prosecuting
preventive
pogba
##wid
chiang
orte
leasing
kejriwal
1947
allevi
aclu
adr
paypal
proclaimed
explores
hooked
balk
##idan
campaigned
fielding
pads
hardship
makeshift
wilmington
pathway
rubbish
outskirts
carpenter
bbq
pioneering
aboriginal
unear
humour
spacey
similarities
3s
mapping
severity
durable
sult
syner
waterfront
cah
slapped
continuation
paula
escorted
##gae
##cliffe
pardon
congregation
zambia
ortega
tipping
invisible
objection
rao
professors
disappr
manhunt
thugs
phases
airways
legalization
##ijah
remembering
dragging
scorers
solicitor
negligence
kieran
progressives
projecting
lincolnshire
celsius
backward
surging
oscars
maneu
bored
##lift
exh
gra
##answ
coo
schiff
roadway
africans
battlefield
bian
##enary
mee
jealous
fad
flurry
deepest
luxurious
##pers
sax
127
petr
bolst
mentions
translation
asserted
fridge
haas
grilled
##quette
boone
circulated
raping
affiliation
drainage
wizards
##last
cinemas
bothered
awe
##acki
seasoned
lego
burd
illum
cleanup
sidney
discounted
wicked
fibre
wanna
intu
installment
dong
moll
##inqu
##abee
austrian
professionally
consequently
cyclists
jacqueline
yel
crescent
turbul
krish
flawed
sse
tanz
indies
wilderness
battered
counselor
werner
punches
dillon
balcony
wipe
consisting
fuelled
kand
blows
backwards
solomon
##atorium
revived
cameroon
eldest
drums
stevenson
dowd
##51
regrett
mural
empowering
alpine
vom
everett
##onte
##insights
linger
vivid
tristan
notify
petitions
480
johans
admiral
undergraduate
yak
tha
##grass
##mins
ellie
higgins
brunch
camel
bert
##thal
scots
152
guyana
patches
accumulate
goth
alum
bluff
specializes
attribut
rowe
vinyl
slumped
cambodia
emoji
lugg
##core
atkinson
daytime
chrom
ely
##oice
##grove
simone
klux
semiconductor
zoe
##inness
schu
1950
analyzing
bihar
##zzi
laptops
##kata
encouragement
unveil
jaime
asth
succumb
argentine
liable
expedition
empowered
guru
##58
promo
robotic
##eatre
shallow
penc
##iler
formid
182
exploited
expenditures
##olia
depress
##enews
hurry
congratulate
semitism
tate
vid
##bear
137
venus
naomi
unauthorized
platt
expelled
operatives
tampering
inherent
qaeda
dome
mri
##cup
##mott
knives
smoked
progressed
resisting
##repres
yan
##storm
emery
inflammatory
spaniard
aad
##gt
chili
therapist
crypto
annoying
kazakhstan
lime
##apor
canucks
##amphet
gunn
madd
bravo
ome
peyton
strings
bowen
balancing
feeds
570
zachary
accumulated
hormone
qc
chipped
exeter
strongh
aspiring
928
trunk
gramm
herd
contributes
sexuality
repaired
razor
tanzania
dt
reth
buccane
pk
offline
invites
openings
toilets
##ente
stacey
descent
millenn
brewer
atroc
rooftop
taco
fearing
averages
mckenzie
##about
unansw
grin
##velt
##ukes
royalty
terminate
kuz
pigs
##birds
##itez
consensual
##uchi
violates
##von
##anto
signings
granting
width
prostate
lill
##odo
groin
servant
crem
cholester
indecent
bale
comcast
flake
registry
wray
opting
275
hussain
adidas
luggage
formidable
4x
authorization
##lessness
weighted
lengths
teddy
weaknesses
invitational
battalion
hai
rodrigo
poultry
dion
##odel
##umbs
##ackers
##ulton
reinforced
yonge
varg
waking
woz
staring
sitcom
brochure
henn
ideological
rotary
diamonds
aleks
estranged
aided
##adays
proxy
simulation
benefiting
scoreboard
sincere
fouled
##atisf
caret
ems
surreal
patty
futur
inflicted
layout
remarkably
ranger
spilled
reminis
barrow
##ipei
mickey
baku
orthoped
tacoma
dudley
roe
nowadays
methamphet
await
lafay
shazam
rost
blat
calder
renovations
obstacle
chopra
pamp
##iants
captures
balances
daunting
parr
copied
benitez
moines
taipei
nrl
lauderdale
cholesterol
jog
##ksh
##reeze
gluten
147
cheered
painter
granite
newcomer
abnormal
deng
lenses
##mk
##bags
sak
##ilee
strick
slick
##anni
equation
lyft
forums
valuations
tvs
outdated
deliberations
patriotism
carc
finch
haram
snp
journeys
iphones
reit
haj
renegoti
kershaw
lafayette
vonn
##cm
##icacy
flock
payton
cheat
replacements
restraints
mbapp
biotech
repeating
##elu
##estation
pro32
unhealth
strawberry
provocative
fronts
pains
restraint
proceeding
distributing
kessler
stoppage
cly
##hua
goat
artif
chooses
versa
scrum
textile
exercising
recalling
rihanna
##actory
confined
ballroom
resurrect
disgraced
faso
kimberly
##ighton
marble
lookout
heartbroken
ulster
ridgefield
entrepreneurship
seamless
136
banana
casinos
julius
##ozone
honorable
chandr
bugs
rizzo
unanswered
vog
baron
168
bayer
franken
reassure
bombardier
slept
mab
asean
148
mcin
projection
texture
reminding
##felt
drastically
131
classmates
automaker
tasty
zid
graz
rwanda
glacier
##orie
wasting
seism
##ongs
cruiser
honesty
0800
collegiate
spielberg
roc
sis
collector
forbid
unleashed
lush
np
pn
##vic
##herty
messy
belongings
diverted
diagnostics
fellowship
jensen
ronnie
##ked
##web
mentioning
measurement
burkina
##edonia
aless
vale
condo
limerick
modeling
perfection
competitiveness
156
urine
figuring
splitting
vague
dani
bios
bells
advancements
gregg
cinematic
curtail
monopoly
paragrap
cakes
nina
##full
elijah
##inkle
footsteps
catastr
reversal
recycled
hier
##dahl
##cz
##atra
##ecure
meyers
##gren
councilman
destined
rhodes
novak
aziz
qualifiers
##ón
sanitation
warranty
bundle
##walks
tahoe
kale
debit
pumped
astronauts
mkh
whirl
recep
overst
infants
annualized
melting
bedford
rajasth
chlor
##antino
deplet
##pring
involunt
varnell
toggle
losers
ideally
kimmel
frenchman
waz
##08
adhes
##echkin
scream
julien
splits
sofia
nicaragua
ting
##mor
##itating
midland
keynote
sounding
consulted
screenings
rubio
olivier
amesbury
fug
ia
obr
##imi
##ibo
##avez
manipulation
ipswich
siege
redemption
3b
kia
mens
bras
underpin
barre
swipe
factions
pretend
optimal
tastes
sheeran
ipl
##mand
146
bowled
garros
supplying
theatrical
laurent
sibling
kolkata
tav
ym
##ombo
reim
leaking
apples
morph
ahl
generates
squir
godd
dentist
stainless
dary
##pace
hasan
coven
glendale
waivers
totaled
paints
gearing
rouhani
outscored
##atri
cripp
namib
landlords
zidane
cue
forc
##ensional
underwear
groundbreaking
peterborough
eaten
shadows
merchants
doses
einstein
sz
##girl
heidi
offensively
marian
stras
shortfall
variation
denim
divorced
buccaneers
jax
208
osborne
apprentice
£50
##mt
amc
vaccines
rehearsal
disturbance
prints
outlaw
contributors
tavern
referees
gour
tt
##hap
##asion
enlight
lauded
legalized
spiral
reich
upwards
myr
skyr
breastfeed
oj
outages
belts
soundtrack
transferring
nickname
153
patrols
gambia
canton
forge
crises
winery
campaigners
dissem
dimension
exemptions
##hardt
cac
rainy
predicts
introduces
sensible
unspec
mckay
jade
lashed
tsa
chavez
##assing
medina
suffolk
overdoses
boasted
fridays
trophies
demo
confisc
mcaul
asthma
wozni
dickson
stacked
api
barth
skinny
coke
##urances
##usp
drowned
rae
motives
riyadh
methamphetamine
tray
politic
laguna
narcot
intensified
overdue
##keepers
gloucester
rak
meditation
151
volunteering
anatomy
##aan
seaw
colangelo
summoned
sexton
israelis
displaying
innocence
renovated
indefinitely
rents
##inth
herbert
extrav
518
coatings
sasik
auss
kear
columns
surgeons
andersen
fade
lazy
suites
clich
thrust
snowboard
stringent
descended
narcotics
£9
financials
##owell
swir
##ecki
specials
damian
gardening
counterpr
icons
lavrov
huskies
##wig
adity
westbound
290
hussein
mackenzie
rajasthan
pike
loft
bowlers
horsepower
traffickers
proliferation
jaguar
yelled
##wolves
friction
plight
##oku
supermarkets
inappropri
merchant
wk
airborne
dealings
refiner
screened
rollins
yankee
crossover
sasha
##atural
melaye
albania
overshad
##asketball
corm
plas
polo
154
interviewing
bully
mercer
astonishing
jurisdictions
hectares
inhabit
inspirational
shor
aubame
unspecified
vil
##aic
rightly
heroic
jait
mcauliffe
dino
faw
##eri
compuls
reposit
aliens
aubameyang
##advert
elm
homework
raided
sunlight
wilkes
eduardo
zhang
wielding
##iently
##atement
roose
##ultural
schwar
143
mccann
baskets
866
sabot
brigitte
dmit
rous
##umi
urges
555
advocating
dynasty
##sports
fibr
unhealthy
myri
transc
selfies
ibrahimovic
##enhagen
##erved
sponso
stockp
strategically
sleek
frem
uran
candles
cables
actresses
spacecraft
142
halep
scheduling
princeton
embattled
stripes
randomly
merseyside
gina
tl
##cely
inclined
ama
marketers
goodwill
conducts
occupants
##olu
coma
partition
##00m
edgar
mondays
businesswire
nec
##alone
##ayan
trot
carmen
cove
commenced
##ripps
handsome
lii
sustaining
dodd
poké
pb
becky
depre
resting
motorcycles
##imen
perc
utmost
ovechkin
midterm
dix
hary
sarg
cougars
bled
marty
trusts
miserable
alternatively
naira
quartet
fictional
upr
accol
diary
angelo
referenced
440
abolish
lesbian
##gev
posture
germans
selfish
frankie
sparkling
coincidence
abruptly
thu
norwich
smiley
boko
kov
##ande
sparr
formats
##cker
shire
##cht
weimer
arthritis
concession
hostage
cites
chamberlain
hazel
mbappe
reclaim
commend
##crowd
morales
clearer
copenhagen
embarrassment
router
dictators
neglected
meteorologist
efcc
ambrose
kud
childcare
clinched
exporters
blooming
oecd
twent
houth
1963
undermining
spurred
smiled
blogger
relocate
hotspur
hanc
mous
##iem
spine
imperson
basil
224
samar
javier
deficits
hsbc
embarked
belling
vy
abst
croc
commentator
wagon
##ellan
apac
suppress
235
logs
euph
shrinking
phrases
prevalent
lansing
##04
##ombe
knit
counterfeit
mackay
stratford
inappropriately
ls
wein
159
forestry
detectors
amphith
jaitley
fg
kre
mou
drastic
strauss
shrimp
supervised
intimidation
kelowna
##tes
##chen
specs
chriss
dias
unpop
cheerle
melanie
triangle
mistr
##eliness
##store
haunted
resent
macau
nichols
breached
granddaughter
nifty
studded
rounder
theatres
omn
puppies
downgraded
trinidad
susceptible
lace
##hub
##62
peach
blasts
validation
ubi
tok
discard
curtain
rhinos
discourse
stubborn
sincerely
spik
calip
rss
1962
govt
lieu
fascist
wiggins
bystand
policeman
murdering
diversified
galway
hoover
sluggish
variations
arsene
jio
rr
shay
spears
headache
ridley
ryanair
darker
cerebr
fiery
roosevelt
iz
##esis
sums
paras
longstanding
idlib
energetic
heartfelt
microphone
praising
schwartz
stagn
spun
objected
administrations
malaria
toro
surrog
friedman
homeowner
imprisoned
gyn
yi
##tree
##fb
arrog
ministerial
marcos
kalan
seventy
swimsuit
sasikala
##gc
traces
plumb
timed
occupational
inaugur
mclaugh
sinclair
meadow
##zn
suppose
unveiling
mitigation
lester
realities
##ophys
grievances
chattano
##ppo
overb
134
snoop
populated
diy
obsession
gmbh
##onymous
virtue
bumper
glamour
smackdown
boll
watering
mornings
rejoin
tucked
nish
sings
overcrowd
slashed
consultations
acceleration
nutritional
spartans
nuc
##isans
inducted
leonardo
irresponsible
lorr
ratt
contacting
recommending
logging
destabil
measurements
blogs
disneyland
semitic
cboe
##wave
repub
operative
avery
scarlett
sausage
leop
adhere
strides
forecasters
kendrick
helmets
marjory
blister
gubern
247
richie
325
646
orchard
huckabee
unofficial
loser
richest
hoax
whistlebl
pits
carved
sloven
subt
withdrawing
neville
arising
scripps
gund
gluc
##ynia
badge
landlord
manifesto
omega
daly
hose
##osaur
brighter
blackrock
psychologist
alek
accelerating
intolerance
archer
renault
b2
rouse
##bly
prag
bett
profiling
##insky
veterin
##eday
##abs
obese
advertised
lymph
hazards
refunds
immunity
lough
compelled
expands
downturn
headaches
subscriptions
clubhouse
apprehended
mce
carne
classification
arabic
sergey
##enth
shiny
emergencies
fairfax
portfolios
uzb
upfront
derbys
abdel
threads
geographically
unpopular
gubernatorial
aces
sob
uzbek
cite
ego
hq
##ople
warwick
gunshots
capitalize
sampling
wester
##lass
grays
marx
addicted
corona
daesh
papadopoulos
benedict
drummer
refrain
sage
bran
eastenders
sheridan
installations
squads
uconn
mdc
tumors
demonetisation
£85
##oi
##fold
unjust
upsc
excel
volt
generosity
approx
nicot
triggering
mclaughlin
hk
mv
##pill
##entin
gods
drunken
##nant
sperm
grud
quar
analyse
declass
cyclist
sacrifices
landfill
hancock
vans
conrad
gras
flipped
funk
##incts
resolving
condemns
gamers
diligence
mau
theirs
gdynia
hated
getaway
despair
sok
nood
insect
technician
moh
citi
srin
penetration
gee
##hell
##hog
weiss
##axton
ryder
molecules
slices
cllr
parental
rugged
neutrality
botan
assertion
##atical
##aden
goodness
footing
accumulation
cushion
derbyshire
bauer
sj
##corn
##code
##lb
onions
##akash
deborah
royce
commercials
colonel
vegetarian
rancho
wizard
nud
##enheim
monet
quitting
panor
70th
ethic
coco
chickens
##balt
gibral
vibr
screenshot
telescope
myriad
kare
onstage
clown
flashing
kee
financed
eighteen
deduction
jacques
pon
birdie
geared
levine
plateau
meltdown
fd
lund
##elect
shat
bogey
245
reasoning
##orrent
##dal
plank
edwin
doctr
goldberg
favors
impacting
mandalay
freddie
lesnar
lantern
converting
betsy
pyram
peppers
tilt
ariana
governed
##aldi
mirrors
dvd
jockey
looph
considerations
raven
rashid
humphrey
oncology
horton
##aru
showtime
denise
340
stressing
observing
dwind
bain
bonnie
pbs
##chron
hale
bangal
honorary
arraigned
##film
nm
geo
cellphones
728
evacuations
intervened
720
fumble
sina
##92
stard
##iao
wakefield
dimensions
tds
img
almond
diocese
romero
375
styled
exceptionally
bourbon
vodka
jeopard
visibly
waits
negotiators
pulis
souls
##ogenic
paraphern
enquiries
newcomers
lhp
##bands
##onga
underdog
planets
paisley
authoritarian
wilkinson
mansfield
scrutin
ovation
haryana
nes
##mob
thy
sco
ensuing
##burst
unsur
portraits
rendered
abstract
obrador
kod
trous
repet
roaming
winding
organising
hyde
tyre
£15
dui
malls
##played
benton
chesterfield
havoc
hath
ypg
##orously
##unts
peac
businessmen
balloons
pursu
snapshot
exceeding
pupil
pesticides
als
bred
caracas
intox
marketed
medically
blackmail
##plex
vastly
mudsl
msci
hipp
oman
toes
##imet
blades
denounce
tributes
spinner
sweepst
manson
pamela
cylinder
lamented
slipping
harding
judd
separating
spicy
priests
sevilla
eats
tox
resched
##ibu
##orman
##grown
##erica
snag
bookings
370
hannity
paraphernalia
fiji
iso
##imo
flare
tuesdays
batted
forgiveness
overcame
foy
lima
olson
##poons
bergdahl
inherently
prejudice
##nels
##atoon
##arella
##umen
blackpool
adjour
hawth
hubs
iguod
vying
discoveries
aleppo
##ophobia
nostalgia
##gart
##akis
endurance
rebounded
muj
floated
fouls
vicinity
rodeo
uv
##hills
##imated
depicts
178
electorate
matrix
horrified
1948
janeiro
lunar
thru
downed
skew
internship
understandably
mogg
frightening
ymca
cider
##utter
recon
statistic
confession
kelley
shahid
##hm
lea
apocal
permitting
soros
##chemical
baff
worthing
phosph
mins
##cross
glowing
frontman
contracting
bottled
unfolded
cayman
gong
##hler
haiti
exits
cobalt
157
rocking
##ieto
applauded
##ecured
marque
handmaid
##ometric
multic
##hany
strikers
tumbled
trademarks
demolished
vm
##etter
hex
##awan
holden
debated
supers
rigid
kalanick
nai
##cal
##uw
##pow
highlands
slope
##baum
unsecured
tarantino
intoxicated
cors
gid
zinc
##dn
##pted
stewards
coordinate
duplic
jasmine
evangelical
slovakia
##boldt
prasad
pokémon
sweepstakes
hv
##oski
combo
##avers
llp
galleries
yielded
psychiatric
bait
bribes
practitioners
horizont
gore
##etown
priy
protester
extensions
manufactures
welch
blueprint
irregularities
nutrients
nys
##liners
fearless
scarborough
awaits
tbs
##és
regen
malone
jerseys
resisted
gibraltar
vt
##church
visually
leftist
identifies
criticize
380
borne
refurbish
nx
vall
assurances
elias
humboldt
lynd
ceasefire
cinn
iger
inadvert
packaged
##arin
coated
preschool
schw
merits
##arious
hepat
renee
suvs
chevron
detainees
dundee
unreason
jans
nails
rx
daylight
norris
##plan
aviv
rampant
rutgers
scrapped
maguire
##idel
##usc
##allah
repurch
correa
proph
artillery
accusation
lonzo
guatemala
buenos
aires
pageant
42nd
exhibitions
colonies
neurological
pneumonia
##fm
haute
spar
murderer
faa
affordability
bridgeport
subsidy
mathematics
iguodala
##ror
thief
fourteen
checkout
loyola
dimensional
istock
buzzer
##qv
##ecs
chess
incub
buchan
scanner
phantom
beir
incremental
matchups
txz0
##uli
bravery
canvas
alloy
rested
faulty
riots
lennon
vc
alec
##ustomed
blended
wrapping
constitutes
fitzpatrick
bureaucracy
cullen
exile
remedy
moreno
rollout
inconvenience
zo
chak
recept
posh
labelled
##ukh
ageing
cocoa
sleeve
gend
##ilda
305
corr
sixteen
wired
##fessional
##lane
##kw
shear
goers
listens
senseless
remarked
sulph
airstrikes
##oine
##gent
##86
##adors
##esses
15pm
accessory
00am
referral
vacancies
piercing
novels
bard
zl
##atus
seab
##erged
configuration
mcfarland
##yards
backers
slipp
variants
sonny
vacancy
maurice
sultan
ella
analytical
motorsports
lilly
##urp
suisse
##assi
redsh
extinction
sourcing
billings
ninete
uniquely
trilogy
pis
chast
##phere
##cro
genetics
stealth
medalist
discriminatory
rows
##omatic
slack
metaph
shooters
scrimm
compensate
insurgency
##omer
dams
combinations
2027
bailout
ppp
##itus
##icidal
alicia
##aghan
dover
heavier
nephews
bharat
gases
##char
##ifier
annapolis
streamed
nearing
collaborated
watershed
affiliates
lobbyist
kai
desirable
dominican
miley
##nuts
##200
##biz
##jw
##acp
##aday
chow
insured
connell
pubs
replaces
daisy
softer
vpn
sleeves
graffiti
roomm
obit
lara
##ueling
attracts
hawking
volcanic
abl
drift
mustard
honol
luncheon
translates
fulfilled
stalls
creepy
isabella
macy
weir
emission
systematic
analysed
inexper
zoom
mayer
scher
payday
selective
promoter
hendricks
ngos
##pod
donuts
housewives
modes
100th
italia
ashton
bbb
cif
token
##shed
nominate
borrowed
froome
chattanooga
pursuant
stella
##ongo
quota
playlist
barron
europeans
breakup
hearted
poorest
ombuds
handicap
vouchers
mcdermott
vows
##zhou
##anity
##awat
45pm
clinch
##ewski
noticeable
tonya
exporting
timberwolves
stimulus
eyebrows
rebellion
aam
cisco
fuj
oasis
##wash
spook
starr
collateral
drawings
rookies
groceries
slogans
gf
kyl
##jun
##iltr
##arte
herm
janata
##iffin
homage
originated
protestors
horgan
romanian
teased
needles
illusion
distances
hoops
shirley
relocated
zimmerman
orthopedic
nia
ping
unpleas
incurred
##ccfull
atlas
optimum
foley
adtechccfull
catastrophe
bangalore
adtechccfullstring
prefers
##annel
hostility
beatles
toni
tripwire
outraged
implies
stamped
reproduction
golfer
honolulu
bins
##erry
##uta
someday
unravel
explorer
landslide
##map
clarence
whisper
ortiz
binge
insecure
hungar
rebounding
curse
spirited
barrie
provisional
roasted
cerebral
##zen
##yk
grues
remorse
approving
stereotypes
##breeze
206
cleric
query
accessibility
##iciently
tearing
reeves
ecuador
ppg
##uent
##asm
reapp
##chin
blink
northampton
societ
mcle
mclean
disorderly
scanning
brawl
##ubu
scams
##ogi
totaling
freshmen
substitutes
##itaryan
quirky
attributable
##orpe
##isch
##izzard
cassidy
millennium
morne
racked
zam
medics
implant
caretaker
##inter
homicides
illumin
##cry
reiss
edmond
ranbir
hutchins
scrambling
mkhitaryan
lbs
piled
hab
earns
custod
torr
restriction
disclosures
caterpill
replicate
cerv
plung
##ogne
becker
defines
genome
deadlines
loof
dwight
##ophobic
cess
kern
nause
##ambi
spacious
clam
##ouncing
insects
modify
departing
infiltr
malt
entirety
plotting
kaduna
vargas
rach
dray
##urrent
module
##afone
woodward
venom
simpler
tug
burge
410
curs
##erity
autograph
chartered
throwback
ignorance
dic
##52
##atal
##ibune
thanking
garland
fixes
altuve
vineyard
holtby
##iso
clair
176
mcman
hotline
educating
garn
syrup
cowork
counselling
hwy
dane
falk
fulton
##made
##oct
spam
##velope
remake
304
harmed
progressing
reflective
punitive
advocated
levi
adaptive
bachelorette
wozniacki
unsurpr
ecc
kourt
tenc
##hil
pri
##estr
envelope
efficacy
creations
231
capitalism
physi
caste
prohibits
mergers
fayette
vodafone
contraception
marriages
khloe
auctions
benson
##lene
##iffer
elusive
underage
surfing
buckingham
atrocities
duc
zah
##atin
##ignant
injected
markers
maternity
fulham
amidst
paved
colourful
chaffeybreeze
incompet
sousa
adjourned
dap
##jk
beech
anom
sao
focal
lucia
ringing
deploying
drowning
uprising
##sb
chit
##aval
scales
accompany
tortured
greeting
unpleasant
mally
nano
vou
xf
reliant
safest
thursdays
cupc
tomas
panch
ps4
karan
catalog
unstable
yun
##dogs
alam
##emate
40th
walters
coordinating
scramble
proact
##ells
doomed
strap
warmth
737
recounted
##300
hadid
breasts
merry
accomplishment
sewing
indirectly
interpreted
mccormack
##rice
brod
boz
4500
sensing
widening
utilizing
privileges
lebanese
tatum
quarterfinal
seminar
ombudsman
950
bps
poth
pasc
claw
arb
secondly
juic
btw
aca
adul
clergy
pertaining
depicting
##psy
legislator
exclusion
845
synthes
disagreed
rift
clamp
grains
##ilyn
blackberry
cornerstone
wrestler
mourning
pokemon
wires
withstand
plots
aram
peripher
presby
315
fatality
tissues
orn
vald
172
juliet
gush
##horn
##oco
arose
pars
guang
waived
otto
scaram
bucs
tandem
##iotic
canter
remanded
singular
lifeline
confronting
cfl
anil
bests
irony
khalid
##rosse
restricting
refineries
hens
##esse
guiller
merrill
unintended
grammys
rotten
onset
brim
accustomed
standalone
trailers
tanker
revisit
##gevity
latt
raging
sass
##comb
sto
##coe
divine
candle
enrol
complimentary
bse
cpr
demean
tracker
concluding
disturbed
margot
##tles
expon
inval
workplaces
diff
swear
##appa
poems
collaborating
pulp
bouncing
tainted
##nt
##arat
##ensible
elites
fleury
ekiti
denuclearization
thesis
##fy
upton
goodwin
refining
viruses
inspected
pml
gatherings
bleacherreport
artifacts
##was
##59
##acion
##think
appell
holistic
denom
samoa
wrongly
wearable
robberies
butterfly
lacrosse
authenticity
guillermo
niece
##rings
queries
demarc
researching
sexist
axis
##lieb
ejected
dex
signaled
213
chairwoman
scaled
mitt
tad
shaky
outcry
##anco
endorse
167
boyle
acquitted
1945
chatting
ultras
daryl
dizz
##usable
##bson
facto
##afi
admire
tumult
kissed
dd
ada
unex
unborn
termed
pearce
huntsville
chanting
bia
insol
landown
torque
fleming
diversion
tolerated
transmitted
pledges
opposes
fracture
bunker
##dia
##mount
donned
303
joanne
cheapest
compassionate
##olls
esk
carlton
enclave
##cap
heg
##ivision
commuter
charger
pusha
kluber
assumes
hesit
repository
unsurprising
fences
spouses
diets
unload
deprived
discredit
5k
##360
##igor
reeling
204
imbal
useless
geological
enforcing
foolish
dine
##green
static
employing
cooke
gallons
divisional
depicted
##ippy
advertise
extraction
aspen
gaut
interacting
enlisted
fertility
dp
raffle
brits
oprah
11pm
limitation
drafting
submerged
towel
brightest
delaying
mistakenly
ruther
1080
swat
mcne
maddie
toned
oversaw
defenceman
cheshire
sek
apes
winless
superm
##friends
cnet
aldi
leases
cohes
slots
britney
312
sudbury
elevation
convertible
genesis
scooter
sars
ubs
##bro
procession
shorten
414
capsule
rendering
saskatoon
scaramucci
##arp
plough
fintech
lawful
achilles
rotating
pillar
##etric
scans
courty
##burger
brutality
yonhap
persecution
morneau
ropes
yus
explet
schl
speculative
propelled
169
##uggy
regulating
bubbles
vandalism
cain
##olin
peril
decree
##balls
jude
honours
accountant
freshly
chapters
pulitzer
replica
bonn
sisi
##estones
unilateral
drizzle
##gett
renting
##pre
##rup
fragr
clint
ariel
barric
escort
pinn
lockdown
commemorate
upstate
##vasive
##building
epilepsy
routines
trendy
naacp
gdpr
elephants
refurb
unequiv
alleviate
sinai
##eid
##ipation
evenings
solitary
fedex
deterrent
citrus
##zzo
speculate
relevance
eurozone
summar
vanity
influenza
quantities
salvage
nune
##enton
neb
signage
moratorium
malfunction
##ettle
ridden
definitions
##ww
braking
checkpoint
merge
scenic
ignited
kart
overcoming
interval
tripled
complainant
paving
johansson
gruesome
##dorf
##kit
209
##oughton
appra
##angled
midtown
planner
fueling
lyric
leveraging
versatility
superstars
kram
receipts
worthwhile
godrej
preparedness
gottlieb
celest
bezos
dull
##wy
##ilot
adren
offended
gameplay
marches
236
maternal
hallway
woody
optimize
turbine
herdsmen
mallya
invaluable
kitt
##cul
##pel
chatham
suh
##azar
##alke
sena
homosexual
##working
saras
elders
stephenson
tuss
##inges
prank
interchange
214
executing
exhibited
ebbing
mckenna
inherit
plaque
##arov
##uti
earmarked
detached
valleys
aws
rammed
sophia
misinformation
vat
##vay
assemble
##ierrez
sonia
greenwood
penis
##meh
peacekeeping
earnest
skyrocket
nath
oled
##iu
##zon
downst
tattoos
ail
##coun
##orph
##image
plague
indices
medall
waymo
strait
##unga
delightful
insulting
breastfeeding
eternal
##dl
##mh
##bier
notched
##ollen
##bride
artisan
179
##ycar
livingston
queue
julio
hinds
positives
bulgaria
presbyter
keller
##81
##anath
##oso
##ainable
goa
crank
171
greenback
enhances
pregnancies
kilometre
dimitr
earthquakes
hig
##hop
anita
162
217
relieve
ethnicity
grooming
shinzo
bingham
##oza
toff
insulation
##ressive
awaken
##fields
environmentally
scrub
##oshi
##zzy
disagreement
##uh
unused
upstream
1900
endanger
##ologic
waterproof
occurrence
wifi
overr
playful
barns
patents
spokane
curator
ambig
3006
618
reversing
geoffrey
nis
pian
hezb
brenda
hateful
vulnerabilities
umbc
barnett
rudy
avocado
hepatitis
##01
##wer
stained
perks
snatch
cereal
dusty
chanel
hydra
unrestr
daring
##acio
aden
herbs
emerges
hayward
dietary
relegated
dnf
cio
dah
dpr
jj
##ecy
##vering
##osted
##gher
challengers
tapes
clarification
confidentiality
pesticide
doctrine
cvs
gould
rasp
taps
wednesdays
freezer
countdown
gutierrez
pillow
dashboard
bombshell
predecessors
##home
strow
blanch
disconnect
giroud
crossroads
venice
rahman
wiseguy
redeem
seismic
1pm
dier
nal
suicidal
monsters
strains
##ovsky
despicable
##dragon
assignments
prioritize
scottsdale
hl
##ubishi
##othe
eastbound
constituencies
caesars
umpire
protagon
recorder
turtle
captiv
loneliness
continuity
parsons
##heed
chino
dept
willow
stric
editions
distressed
probing
undated
dutt
tunnels
athleticism
longevity
rashford
yogurt
faded
##iary
usern
##actors
strips
roche
guinness
boon
footballers
mlas
ambassadors
chatter
urgently
nagar
rudd
tsp
##fra
##unity
blames
##ulla
hopeless
dunham
lyons
##breaks
##frame
##patient
wsj
creep
rosemary
sheila
belarus
fours
mrfr
packet
fortnight
kilograms
appreciates
papa
1958
grieving
uptick
myrtle
stricter
morm
##cts
##olent
##osl
interrupt
signaling
este
awake
macc
pretending
vegetation
calmly
mammoth
fraternity
scrimmage
gems
kes
kul
##cat
brides
incidence
drilled
##ondition
champs
stockton
doorstep
embold
rubin
harvested
refreshments
bharati
##oger
morale
228
coward
mcdowell
ravaged
dreamed
relocation
mitsubishi
dmitry
hezbollah
kph
pins
toured
brac
drank
##rium
propel
ecst
massively
tempo
owes
retirees
magnet
brutally
kyrie
carnegie
shov
blends
servicing
##rien
organise
processors
232
unlocked
resigning
sidd
resurf
lutheran
deflected
upscale
wiseguyreports
gers
kry
vow
##ibus
barker
varies
generator
##ventional
disrupting
##contr
hampered
astronomical
stumbled
pesh
ritch
##ienne
demons
speculated
flavour
townsend
crossovers
zombie
##ulary
justification
ratios
1930s
restrictive
unreasonable
gis
€1
##isance
haird
straws
servic
##center
##weeney
handler
angered
resurgence
pem
riz
sow
outburst
teaming
maest
senses
influencing
stormy
paddle
abducted
pcs
ceremonial
##utan
olsen
dinners
anthrop
brushed
unconventional
2d
##hoe
##andowski
adler
accu
##ynski
bowel
outsider
incorporates
fingert
spoiler
kourtney
jup
swn
##non
doe
##weigh
insecurity
petra
referencing
dreamers
coupon
horns
hawaiian
shameful
cyclone
persuaded
bancorp
diction
##achers
changer
domino
dictate
gemma
liaison
inexpensive
fills
##aste
grinding
viability
romelu
mickelson
boasting
biotechnology
interfering
depreciation
hungarian
dimitrov
mow
peas
elle
colise
millionaire
swelling
211
pathways
##breaker
ozil
erected
mika
rican
1961
narrowed
wikimedia
##cam
##imon
girardi
andreas
smokers
pomona
caterpillar
rude
cheng
arpa
##uchel
sunni
transporting
remembr
separatist
gronkowski
foreseeable
ayr
##onal
prague
exiting
manny
soak
mayors
persona
##beh
gunned
etfs
oslo
downloads
lovullo
shanahan
facilitating
rethink
aussie
beneficiary
ranged
nieces
clif
loe
macedonia
calculation
aesth
macroeconomic
presbyterian
dhs
##hin
thak
backbone
conceding
directorate
unfounded
scripts
conditional
psa
commanders
paralymp
shankar
rutherford
eis
hiat
mch
ingest
chants
##allo
abide
purge
saudis
trousers
gus
tended
yuk
##sburg
anast
trench
lefty
dove
##asonic
waterford
amazed
osin
devastation
rupee
sturgeon
slaying
erupt
sard
##500
##ulators
cane
drained
##uga
161
screamed
briefs
breatht
flourish
plumbing
##number
##jin
chau
parach
smashing
obey
rulings
grader
reminiscent
##gol
outweigh
howell
##tegr
breathtaking
##wyn
##amili
traced
incarc
100m
automob
romney
diameter
narc
conceived
prudent
expansive
stronghold
##ogh
thump
##eras
spies
collects
255
snapping
motel
advertiser
##ariat
snapdragon
showcases
conceal
staunch
coliseum
eruption
hhs
nana
##uates
darnold
adamant
galaxies
paso
##nard
crust
appalling
idle
corros
competes
choi
##ettel
457
##corp
ica
forrest
reddy
226
merid
##funding
beirut
aux
##eder
shrew
blizzard
instincts
##vester
##quisite
wl
emir
northam
hears
persever
randolph
consolidate
revolving
assailant
##conn
##andre
##soff
##nington
##obal
ava
calib
juniors
historians
diversify
aquarium
harrowing
cet
##57
##esting
allah
##assis
joanna
austerity
adjud
bacterial
sculptures
diminished
lehigh
caz0
xinhua
##jas
cozy
bleaching
arcade
##oscience
astronaut
residences
the22
##levant
anad
scha
norwalk
##flows
issa
commentators
constituted
barrage
reinstated
accuweather
bav
vect
##ser
##jon
##aniel
##emaker
edible
modelling
##yna
dispers
feasible
lec
butcher
##photo
##pora
kinda
turks
podcasts
tallied
irrelevant
sliced
##rp
##igi
teas
emil
informs
supern
guessing
kathryn
confeder
ineffective
##herst
maf
menace
wilts
patroll
sorted
rumble
uj
##izu
informing
organizational
neckl
undermined
republished
163
buyout
raceway
333
axel
fiancé
hiatus
##alom
caravan
salesforce
bangor
tragically
seaside
##ratings
unins
perceptions
commissions
secre
remn
lett
damon
darkest
dilemma
repayment
arbitrary
shun
rechar
genres
exclude
sindh
recharge
dax
##db
##mere
##uven
##bike
##yo
207
marilyn
informative
broadcasts
unfamili
##ominium
mushroom
frenzy
cahill
gull
rue
##haven
##isky
##ecting
unrespons
mori
condominium
fireplace
antics
430
moonlight
kitty
lorenzo
annoyed
overbought
biting
kron
theo
hesitate
adolesc
paragraph
ingen
winters
putt
oversold
gigi
carnage
temptations
ptsd
censorship
taked
photosh
visitation
alma
piper
##borg
henley
rossi
tyrone
supplemental
involuntary
mould
rana
##du
##azer
mids
242
melody
premiered
padding
seventeen
rigs
ambulances
styling
perceive
boul
debuts
dreaming
sloan
nxt
xc
pric
##antis
peaked
##tyre
239
##ervice
dickinson
newfoundland
courtyard
##ña
chilly
##uddin
repug
crick
75th
fiercely
gadgets
precautions
iqbal
forfe
mayhem
desires
medie
##flies
devote
hawley
dependence
keywords
nguy
##illas
chats
##uca
setbacks
slopes
302
158
babe
religions
somali
gutted
dealership
mavericks
sulphur
##oton
drib
strand
##encers
moran
golds
karab
levelled
jalen
indefinite
lme
##gre
##ssa
##icio
polite
##isson
collisions
218
##tenham
diarr
kelsey
tallest
printer
velocity
intimidating
hormones
seagal
anand
spared
unreg
outnumber
endow
248
roundabout
##ographics
undo
##people
disclaimer
kenyatta
medieval
admired
sweater
swimmers
friendships
sympathetic
mccormick
hf
##pb
schultz
##iera
grease
grandma
collaborations
hugo
lori
vaccination
kayla
marrying
prominence
pash
##acs
impul
redirect
mcph
murad
melvin
microw
pundit
vish
##alam
##ectal
spca
overthr
##quist
trucking
suitcase
860
zeenews
pantry
050
##jit
drafts
thanos
welding
rubicon
mutually
mentors
pagi
unleash
fidelity
tencent
swns
nguyen
##jack
##chuk
##agements
clog
maroon
outage
entertained
communicated
incorporating
mcgill
jv
waved
##vable
transp
victorious
cheltenham
mcdaniel
reunite
weakening
uzbekistan
lark
##bol
##acement
alarms
##odone
evid
invention
defra
allowances
escaping
attendant
batsmen
tubes
sesame
nicotine
horizontal
decker
subpo
##uku
vera
predator
saddle
dodger
motivate
tempted
repugnant
subpoena
sama
##icles
earrings
needless
slams
morg
chevy
sufficiently
##bajo
##orthy
suzanne
trolls
unresponsive
generators
mccull
sherlock
breweries
romeo
implicated
manipulate
contradict
ritchie
rbc
##urous
##elles
##arya
leadoff
oppression
501
colorectal
warmbier
segregation
##°c
##ocus
##alli
researched
determines
kirsten
cheeky
crooks
nucle
bumble
giff
varad
##uffy
olympia
recipr
upsetting
bumped
cortez
duffy
filipino
inadvertently
bax
fec
##anian
doom
planners
corrob
redund
##ewater
cardboard
32nd
pedal
immersive
shapiro
wiltshire
gomes
##ienced
##lich
##indra
para
##mani
1200
camden
damien
hooker
alignment
boiler
kop
mf
pse
theod
##aston
butch
braf
imran
smear
generals
fatty
transitional
siri
adorn
boarded
crimin
rosario
abandoning
html5
cumulative
##espie
maldives
slippery
hare
rox
schn
308
esteem
restrained
munster
collectors
liner
accuser
disruptions
lipstick
feminism
discourage
hammered
wad
##hackers
##usions
lein
spit
spans
trumps
##enga
snakes
##coon
antagon
285
yielding
stresses
jenna
registrar
polymer
fernand
##cestershire
unman
amherst
desmond
violin
undec
favourable
memorials
6000
borg
natasha
tuber
undercut
disadvantage
nitrogen
zika
##houn
##york
asda
bullies
£12
baut
tankers
aiad
enhancement
axe
stabilize
sailors
franks
marriott
outsourcing
derivatives
remembrance
tents
spate
polished
slain
##echt
##igroup
coastline
dinosaur
breadth
courageous
velvet
hemis
burdens
##kah
##adder
weights
##emic
coch
roaring
geek
hammers
snowy
diners
liberia
mlbb
obscure
##ahahahah
aiadmk
lact
vinc
webc
manually
meats
glitch
rupt
ancestors
mlbbase
jeter
pau
wight
##hey
storylines
ukip
acquaint
stickers
landscapes
blinds
lecturer
retrieved
bingo
revamped
incarceration
ea
htc
##actor
paran
regained
reggie
jung
antoine
auditors
sweats
lakewood
capp
##ku
##igm
reorgan
hairc
164
archie
##haran
brunette
simplified
gentlemen
unexpl
osinbajo
bmo
gail
##bm
ald
##abulary
beforehand
superc
sawyer
methane
brookfield
erica
stimulate
wastewater
stalking
redshirt
cag
dared
discrep
milestones
westfield
sentil
angu
bali
fearful
fitchratings
gillespie
unrealistic
tracer
mba
creed
towels
insurgents
slovenia
voucher
gaze
arter
addo
veh
184
fema
contesting
tracey
addictive
thc
##anz
perennial
soaked
##croft
terribly
mccart
lockheed
grammar
##qua
seren
flashed
confin
basel
michele
##ruff
##embourg
530
sticky
tuning
busted
puppet
disrespectful
malk
qtr
##edes
quentin
attire
##cribed
crease
173
multilateral
middleweight
finnish
mlbbaseball
jt
neh
sped
amr
##avy
civilization
translator
merged
insightful
lubric
bant
caffe
##wing
##etan
##ako
canine
flanagan
descriptions
removes
taxis
keystone
motions
squash
jessie
ronan
unearth
namibia
automobiles
remnants
unfamiliar
brafman
##7000
comr
evenly
verma
sammy
jamal
anticipates
loudly
hydraul
cps
brunt
snatched
microbi
cathy
trenton
kellogg
buchanan
nih
rattled
chil
##iker
ruler
eyeing
rosie
anticipating
ceramic
affleck
hires
rave
##enes
resumes
timeless
snub
groundhog
##ajo
skyline
fiona
pies
##enburg
whipped
pry
doi
schiz
##athlon
mainst
melted
552
fashionable
imagin
osce
essentials
muscular
abundant
##jiang
##mentation
incap
lastly
sche
detach
analog
antenna
##intosh
bleak
wolfe
##arthur
fleetwood
algeria
520
rj
##lade
##oum
conner
sai
traps
amassed
ceil
hyster
##comp
poorer
lobster
##ammers
tornadoes
wanderers
aleksand
confinement
ee
fats
nac
nand
fra
##ectic
compart
ballard
walkers
combust
hurling
pillars
portrayal
foe
oding
sals
##arie
prized
ashe
edo
##riot
immens
palette
primetime
youthful
linemen
luxembourg
adversity
dyer
lug
##gling
##usi
playmaker
terrell
protr
mcgee
forcefully
bioph
miniature
burgess
precautionary
ogun
##zmann
chee
flores
apost
dictatorship
chrissy
jupiter
odinga
bitch
adobe
freeport
##show
vega
machado
flirting
gase
vettel
usda
disarm
props
educator
libert
renamed
hangs
ajax
sewage
gourmet
2a
jian
lays
##rals
offside
paterson
commercially
litres
exploits
triggers
sprayed
diaspora
downstairs
##emont
twists
emble
syed
statesman
funnel
towering
stamps
spartak
ese
nile
spaw
memos
milford
collier
bagged
lucknow
marcel
mechanic
gonzales
lukas
groove
##elet
stool
offending
midw
foothills
liking
##hea
mcdon
mentoring
anchored
laurel
glut
##raf
farr
skipped
##apple
landmarks
specification
premieres
integrating
masterpiece
smugglers
entrepreneurial
juicy
##otr
thats
unaff
playhouse
##urned
midweek
billie
convoy
biography
infrared
nerd
autopilot
fuss
jn
##84
##qf
shenz
##illac
orr
indeb
myles
martyr
driverless
digitally
ricci
rendition
tnt
username
dé
inund
donnel
babcock
##written
molested
skepticism
worsened
spearheaded
##wald
##olina
181
favoured
kirby
absorbed
##87
##igail
##thy
wei
##ocy
unarmed
##ellations
##acho
sms
putnam
sims
calhoun
vocational
kalam
stemmed
nurt
ignorant
intermitt
indebted
cen
faz
£40
##ections
co2
callaway
swung
sanford
iris
attribute
buffet
vulgar
compromising
traumat
reimbursement
mocked
##oiled
##look
##omas
##thood
##apa
1917
paed
youngstown
landfall
verse
mosqu
exported
eugen
unrestricted
varadkar
vehement
vive
wards
capex
sidewalks
antiqu
##haus
stadiums
sikh
##wah
reside
controversies
baths
kurds
burgeoning
eut
##jani
asph
ade
revise
motorway
katz
shrug
retrieve
##address
strowman
kah
ledger
cheg
hurley
darwin
lobbyists
navigating
livestream
lisbon
##aut
fray
reperc
minic
vein
##atha
defiant
runaway
saturated
walnut
benue
begging
1957
vigorously
ligament
qaida
repercuss
gale
pots
##into
examines
buckley
motorcyc
facilitated
antibiotic
francesco
fca
tid
##ptons
swaraj
pleasing
camar
icing
knowingly
gwen
fumb
piers
##eous
##adr
##abl
scent
valu
philips
dubious
galvan
sheldon
tendencies
alyssa
hathaway
canterbury
kok
spying
uphill
cramp
mcgin
cooled
vetting
megap
titanium
metallic
nineteen
##sy
##lal
bricks
noads
guise
payable
captive
##ethylene
linear
dismissing
scarlet
fingerprints
ruthless
dahl
##ileen
countered
bearish
issuers
unforget
unsuccessfully
pilgrims
cumberland
prowess
sigh
zay
##fight
##like
schm
mantra
toppled
booze
##pad
##94
levin
ballpark
porto
baba
ruben
switches
outsiders
harvesting
swallow
plunging
vail
ench
##ileaks
substantive
tragedies
stirring
##winds
endeavour
xxxx
bode
kano
##apest
defiance
misery
iceberg
dismal
hindus
mathews
##osaurs
kamara
concussions
pfizer
lighthizer
arpaio
unforgettable
daim
dances
ripple
##erver
alvin
chp
allergy
crap
engagements
vols
militias
##echi
olympian
740
moistur
directs
##mw
carbo
183
donegal
gibbs
seamlessly
russo
cladding
luton
sarasota
ved
spd
deposited
overshadowed
refurbishment
bautista
gael
##bt
##oway
##erspoon
spont
grub
proponents
dominion
##iggle
conflicting
ernie
shoreline
fingertips
bitten
fizz
nay
pity
##vency
##alis
accra
roz
top25
meticul
baseless
safari
popcorn
221
lackl
graders
mln
redesign
fend
vamp
conquer
outset
disk
downey
nightmar
seng
mcvay
giveaway
erased
championed
narratives
aidan
rationale
frightened
clifton
chh
coney
tramp
compost
benign
inquis
wikileaks
suther
##olar
##stroke
ferdin
fabrics
shells
trespassing
compulsory
immensely
shenzhen
630
##xi
newtown
##ellig
outbreaks
##india
##otte
greatness
concede
pett
budapest
wooded
brazen
##ozan
prayed
gamec
dorothy
jams
##nick
elena
regiment
blockade
negotiator
jammeh
locking
spartan
endeavor
glucose
superman
mcdavid
prosperous
futuristic
aq
hess
##bay
marr
ambush
vacated
crawl
hector
corker
deteriorating
fullerton
##killers
inhabitants
yr
##ocate
valves
##shan
renewables
payrolls
efe
fiesta
lena
abigail
modular
295
oxyc
grazing
forcibly
bharatiya
a1
tink
anecd
erase
erika
screams
awarding
foxconn
puig
henri
occupancy
consolation
dues
alright
playboy
takeaways
respite
fielded
229
overseen
eagerly
telecoms
##oscopy
pandora
gritty
##liness
tric
playbook
officiating
166
breakaway
documenting
acknowledg
buckle
##aspers
nordic
ssw
##pable
atkins
herpes
paste
birch
khos
databases
impartial
ceilings
hul
kraft
##82
induction
els
citigroup
##ographical
criticisms
bidder
examinations
consisted
bruised
untreated
gip
##hous
shre
##ffe
passports
traveler
capacities
warranted
ligue
##rafted
infantry
jihadists
injections
sabres
dok
allot
pervasive
187
223
arkady
notoriously
unfolding
flickr
fom
##named
neural
defects
halo
racer
audrey
budding
textiles
wilbur
odys
dissatisf
disparity
antarctic
vomiting
donnelly
##eh
##wani
exporter
firstly
scho
defy
233
banquet
##2018
horrifying
cartel
correlation
cinnamon
luna
##oit
##gov
##assic
obasan
swearing
casa
establishments
harrisburg
rehabilit
retrosp
vinegar
derailed
lankan
motto
##zh
emmer
##ryl
suppression
##eworthy
heartbeat
rumoured
ninja
tentative
steadfast
deterioration
mimic
pepsi
piles
##acom
##outa
disbel
explode
westwood
335
jefferies
##falls
cadillac
altering
alarmed
fertilizer
disadvantaged
spiked
##olet
unesco
striving
guzman
wherein
238
sandals
apparatus
pyth
louder
squeezed
squirrel
qtrly
cbn
hof
lich
##alach
##olics
##irus
abub
twil
careless
betts
cameo
brilliantly
ultrasound
hna
##mur
outlines
intoxic
herein
kindly
crimson
welter
conservancy
##azeera
bureaucrats
tumultuous
obasanjo
##rio
##ahs
wrench
milo
curbs
liar
##values
robbins
asphalt
yulia
##herald
disable
nationality
corbin
ideals
hoop
ferdinand
bist
kamp
outlining
decatur
virg
biopic
bromwich
secrecy
##97
heb
roar
completes
terminals
murdoch
slugger
palsy
remedies
regeneration
kramer
sonom
##mic
##fk
##uso
##emy
partying
##ogo
impover
redef
giraffe
painkillers
337
510
bhatt
dwelling
implants
nuisance
hahn
doha
consulate
womb
watchers
eyel
hacks
owls
rejuven
echoes
cordoned
taiwanese
verbally
noc
##gences
##lbs
hems
insign
262
sickness
kilometer
tirelessly
distinguish
bolstered
intuitive
whistleblower
ais
lf
tass
##fair
trivia
howe
callum
joints
walkout
##ucey
crosswalk
synchron
1953
illustrate
fascinated
igbo
bribe
commencement
pundits
metabolism
repercussions
maze
dehydr
sphere
brie
edison
openness
waterways
fairgrounds
mccall
rejects
shepard
ict
##vr
glaring
irresp
mayoral
nicknamed
christianity
muted
honeym
schizoph
irrespective
tcu
woe
##jam
chassis
scour
emerson
learners
secretariat
scaling
##culosis
giles
vant
ants
sapp
##ivable
##oyles
misman
admittedly
lodging
bicycles
mariota
tuberculosis
daimler
schizophren
##bble
##abank
twitch
centrist
stevie
undrafted
deserving
turbines
fucking
pyramid
##fig
##lical
boiling
metc
177
distraught
##beans
embroiled
nikola
disciplines
skeleton
adityanath
##adic
chou
##ibal
##inders
##issible
unpro
instructors
hugs
tusc
affluent
threes
##ilitar
mara
insults
vanished
giancar
desperation
dwarf
linebackers
ethiopian
veterinarian
b5
gucci
jain
##start
withheld
aldr
pee
coher
roeth
cleansing
osaka
marquee
dag
gior
##path
cone
triv
##207
bruises
mascot
sushi
lorraine
##wo
##but
contends
investigates
menus
frontline
cheque
garrison
durability
lobbied
vu
saul
sains
aman
idiot
infused
controllers
##iatrics
kait
sightings
preceding
aguero
siss
vets
ammon
swanson
460
buffer
bustle
crusaders
asteroid
giancarlo
fencing
ticking
##oomba
bello
embroid
scarce
bridget
hierarchy
societal
##acola
drying
membr
domest
racers
pena
digs
cabrera
ghouta
##aji
coffin
depths
disagrees
bustling
kaspers
frantic
alliances
lowell
writ
wedge
540
patriarch
kellyanne
federally
applaud
retweeted
ouster
vile
##nm
scars
backer
demilitar
rhys
unsust
horrendous
harassing
n1
yosh
##lund
intest
makeover
delo
extortion
cheet
conductor
mortem
confederation
dara
rour
sizable
##alp
##elig
seo
orang
coerc
ecology
suspending
millard
##estyles
astronomers
crocod
inexperienced
hemisphere
##waves
thefts
##odus
spices
backp
glover
funn
rockwell
dunkirk
shipment
tailor
shedding
onwards
##vez
winchester
delph
erit
standardized
mandates
pioneers
ubiquit
pater
##vish
inver
toow
##icist
asa
broth
##aldo
angelina
elevate
##lisberger
lemonade
gurley
dismantle
2m
dots
fading
kogi
##hoff
##fman
##asian
abre
coloss
idris
realizes
biomed
novich
1956
tammy
ibaka
scrambled
foes
guts
ih
##pf
##olta
##ersen
chanted
indo
doncaster
publicist
limbs
essays
tanya
slamming
kubiak
mosquito
cic
dade
##listed
presided
eras
##forth
sami
425
comprise
indulge
mahmoud
adrenal
caffeine
sonoma
roethlisberger
gears
js
##lar
harri
janice
connolly
stocking
buyback
crowdfunding
plantation
##iciencies
optimization
frustrations
nonprofits
tempting
yamaha
hydraulic
jem
sime
tg
uf
##icular
exodus
doherty
playback
simulated
299
mcmill
exhaustive
bogus
jasper
##atl
worcester
##ointe
inflatable
learns
weakest
underscores
cpl
lotto
1920
wrang
behold
mcad
##umba
influencers
naples
wandering
illuminated
doming
##iland
whal
##antically
expulsion
contag
defying
principals
eclectic
quotas
convened
greyh
constituent
philosoph
pomer
jubilee
novichok
cinder
ال
##cers
##pca
arn
aparth
hereby
salads
palms
undue
corridors
tranqu
mischief
degeneres
hanna
kro
##itives
unthink
herz
emanc
interd
##ecker
rhe
ode
screenplay
giov
oyster
jamb
##pid
##83
fortress
clan
carve
##eyes
presumed
ape
##weet
remix
subtr
humbled
243
madsen
karls
derozan
580
mailed
havana
dugg
##waters
##etty
##amins
marse
##undy
collin
rounding
sported
births
counterint
motorist
bloggers
doubtful
##space
##keyvalues
hawkish
bays
dice
mj
wv
yum
beet
##oye
authorize
suspensions
separates
dinosaurs
taped
frameworks
gaa
besp
validity
sahara
ketch
pertinent
loehr
vapor
anam
##tslot
adolf
##apgh
hamburg
elemid
##iliary
diversification
apologies
tier7000
aolhtb
heathrow
hbkeyvalues
g7apgh
rubiconhtb
##tslotname
g7apgheo
##91
##otics
broyles
##sov
handmade
debating
702
krug
landscaping
attachments
brilliance
gravel
prestige
dictionary
kep
##hum
##si
##asaki
##shield
immort
seriousness
praises
intensify
hassle
subdued
biscuits
monterey
##dain
##techn
trol
winfrey
demographics
sexism
easton
##heit
sudo
bmc
cultivation
prominently
##ambique
nf
frog
brat
pregame
congressmen
convict
romo
bidders
darrell
oakley
trimmed
siemens
gou
##oqu
reap
heed
sofa
##acha
##001
##licity
breeds
£25
burglar
mozambique
discarded
euthan
danced
##creen
##opath
clinicians
texted
olig
felon
hauled
##mdb
inserted
accredited
culprit
piet
##ayat
upro
eller
headset
humiliation
coping
verde
scrip
saraki
deductions
rahm
soybeans
metabolic
leroy
krishna
gile
##mie
bln
174
connie
mohan
dangerously
flashes
bumps
dye
##aspoon
mocking
gim
##agin
leuk
blur
opel
##phal
realization
##vington
unlucky
sponsoring
suspicions
dianne
fluctuations
hesitant
toowoomba
1mdb
tian
##bench
##itova
##arton
coaster
schro
##undi
##upe
swollen
drinkers
wrestled
unnot
jihadist
madhya
metaphor
hulk
jing
##iton
looms
##oooo
rescind
wrestlers
bridal
dishonest
muff
##lop
##best
##belt
##elof
##ipedia
marica
teaspoon
191
##inoid
416
##gaon
circumstance
nikolas
eliminates
unsustainable
##reau
anes
limb
gerr
logistical
primaries
lifestyles
oversized
dads
cyberatt
niall
harbaugh
discriminate
vaughan
appellate
lust
och
##eties
coul
unres
amort
whichever
authorised
237
msu
categorized
braden
paradigm
claus
mammals
rehearsals
refrigerator
minicamp
e3
jazeera
pj
tones
##518
##oran
##etus
amput
carer
anglo
##queen
273
envy
nods
profoundly
unicorn
grayson
cil
cog
scept
sweeney
stout
decay
smes
currents
##alding
robins
permissions
forgiven
lectures
mikel
succumbed
mccartney
ripe
##bite
##onica
trub
unpar
locating
activation
secretive
tarn
booths
napa
coding
abubakar
lv
##zewski
##ben
##kenny
##isel
compounded
defunct
placebo
mandy
mastermind
dividing
contingency
flanked
iom
rother
##yah
##atr
stacy
alta
amelia
evasion
append
1918
furry
sentifi
centerline
rulers
sherry
dermat
carlisle
sequences
ancestry
untrue
accolades
refurbished
regress
##soe
startling
morality
cruises
streamline
lcd
turbulent
vehemently
sainsbury
apartheid
gilead
dhar
##oil
manus
##ooks
##oupe
genetically
autobi
mao
##odynam
mcs
wwii
christy
waive
heartbreak
expressway
390
mendoza
wreckage
karabakh
zag
##mah
sailed
butte
reposted
sprained
greenfield
ensued
admiration
sweets
sizeable
cavani
hamper
koz
nug
onsl
##orte
unim
eviction
helena
##weights
coles
idr
farah
possessed
##banks
##waite
ferris
rigged
crawley
retaliate
stamos
kaspersky
pug
timer
bux
disco
252
inflated
episc
buds
entertainer
bulbs
lewandowski
smells
flawless
buddhist
jolie
dazzling
pencil
##aris
##arro
reina
pritch
contended
impunity
simons
patton
219
##beau
danilo
curves
booster
##hei
molecule
resembles
worsening
rakh
##reb
acids
outpost
crm
bland
paragu
distractions
punishing
crafting
handcuffs
thakur
rourke
companions
proclamation
yorkers
sniff
hillside
dunford
oxide
disappearing
grapes
ogden
hectic
carbohydr
honeymoon
tinder
tram
incar
quinc
flatt
demp
illustrates
exceeds
ordinator
##committ
scathing
wir
##staff
arund
mango
recapt
bret
rests
modules
huang
aiding
flavours
conveyed
detrimental
fostering
##inne
##ativity
##igator
shul
pleth
##istine
##iku
cries
caramel
emper
camille
60th
extras
sandoval
behaved
ossoff
counselors
abduction
hanks
muddy
solicitation
intrigue
appropriations
poole
choked
noteworthy
##oker
##ipo
proclaim
nonf
approves
pinpoint
##cyber
prevailed
##uyama
counterprot
priyanka
leinster
unthinkable
incarcer
plethora
kb
rath
waged
##zig
appalach
emulate
confid
##text
distill
impressions
8000
blasting
crowley
parishion
kvvu
baxter
pess
##eaux
##itution
ensh
##ipur
ironic
##mpo
okanagan
wonderland
##ozy
cabinets
reinvent
##valued
exploiting
hydroc
kosovo
annexation
maneuver
ubiquitous
tms
##rim
##ecc
chaud
##icef
presiding
subord
netball
combating
indicative
repealing
stirling
kettle
##das
##wc
##etok
##adish
dey
arna
227
divides
procedural
harmless
sirius
contemplating
inaugurated
keegan
peshawar
unnoticed
##itos
##asive
##icates
##amics
##olla
topical
leary
safeguards
casually
burnett
tightened
ruins
mullins
intimidated
monkeys
mcguire
aksh
cache
ein
exert
probi
thrott
moderation
comedians
##partisan
betrayal
srinagar
rescheduled
ailing
copp
ives
nda
taur
inelig
alc
ley
clusters
ari
prophet
berman
jeffery
decorations
aquatic
breakdowns
tacos
##rorism
anadolu
zinke
abiding
backst
meme
slc
slashing
condoms
lofty
feminine
disagreements
cramer
hates
oust
rails
wti
##gas
##aq
itiner
##ource
croft
addicts
centr
downfall
benchmarks
meaningless
mahal
##block
hoos
ravi
rabbi
assertions
declassified
dx
kha
##ctica
259
specializing
stocked
344
layoffs
560
transformers
prohibiting
simplify
ponds
confiscated
guter
goats
unicef
defied
footed
sunk
believer
249
finalised
deepening
antique
sinister
razak
claudia
uneven
lettuce
hove
acosta
clive
grimes
upright
##trod
hels
profiled
payload
viewpoint
aspire
##aja
cruising
rubble
fischer
kurd
kardashians
channing
passageway
rupert
moyo
maverick
##bread
##jr
ancel
coates
1030
underwood
whereby
ecological
fullback
histories
psl
characteristic
barrister
1940s
obliged
whisky
cosmic
nailed
pensacola
ikea
gynec
ferv
laced
##good
shocks
##alla
raq
253
anglin
313
##iscip
mosquit
tsun
gonzaga
pronoun
unmanned
unparallel
##onian
##thorpe
fraught
##opathy
##iken
invaded
##ahar
worldcyber
pickens
baloch
respectable
dramas
predictive
viking
comedic
mushrooms
zlatan
worldcyberhackers
##uilt
##umab
cologne
##flower
##cox
colleen
264
blocker
gallant
methodologies
striped
emeritus
theoretical
infringement
antarctica
hairdress
1m
twp
donut
##iversity
sunil
summons
curved
toughness
760
625
diploma
mummy
peso
biblical
crooked
blossom
sutherland
unparalleled
##tale
##itian
##otion
deandre
##achal
assort
stature
violently
cutler
heartland
lien
broadcasters
calcium
rooting
entitlement
vowing
##lt
hep
12pm
##white
dombr
malibu
repairing
##layer
aramco
tussle
4a
cube
##tops
oft
##andi
glue
directory
slider
sloppy
airtel
calvert
departures
rickey
eatery
uranium
btm
##etal
1959
bethel
debra
impoverished
sbi
##losure
rebuilt
wilkins
blatant
plasma
kra
tess
##vale
##ilk
##stow
##league
briggs
agon
##ianz
warpl
sling
harrington
majestic
inflows
diner
henrik
##115
£500
hollande
giul
wikipedia
domestically
##anovic
imo
carmel
##obar
showman
##inka
guad
insens
dogged
pmi
sensory
swimmer
reinv
yogi
depleted
mormon
pseud
lass
yash
##bana
shik
##uble
decomp
fared
envis
garment
670
aeros
viktor
gigs
oreo
dupont
monumental
griffiths
karlsson
2k
##dh
##uously
##aus
marley
reprie
emea
##ounmpo
345
bolivia
##osterone
scratched
masked
baz
iain
nieto
beads
violet
entrenched
gud
nip
nipp
zac
##nite
##otle
scaff
gloom
statistically
swot
payers
westport
antetok
jerm
wetlands
soybean
plaus
holloway
yukon
mav
sizz
polk
parted
treasuries
##hawan
buzzing
trubisky
episcopal
dors
gosh
dej
clocked
marys
uncondition
benches
tumble
reopening
leveraged
buckets
ransomware
chunks
guterres
tamb
##zone
##lp
##rays
inhal
##elcome
thereof
overh
scammers
##uckle
embod
ayo
vocalist
bouts
jum
omin
##tb
##eel
##wicks
##orus
##amat
algae
adel
##ichi
##trak
usga
flipping
##bria
homegrown
skys
morse
morrow
requis
anglers
cancellations
foxes
boosts
1942
griezmann
buddies
tomlinson
spelled
amus
##uben
goodell
barlow
netting
campaigner
##anao
perfume
##lifted
perpetrator
blessings
prostitution
ej
##money
andhra
##adia
fru
bram
ene
draining
quizz
taxable
macon
labeling
greywind
bistro
henson
##hir
##orio
atp
resett
complying
scant
tease
bigg
leth
nonpartisan
handset
misrepres
ninety
relaxation
culmination
rohit
fremont
eileen
##wat
storing
alton
multitude
positivity
panda
tet
##year
##igley
##opl
byu
##ewr
subscribed
crossings
dolls
bonding
innovate
sticker
ebola
marginalized
pulisic
antetokounmpo
yeast
##urai
agar
agost
accr
##umps
pricey
constellation
tabl
olad
ican
##efe
4000
papua
divergences
azerbaijani
##runner
hypocrisy
iniesta
##otv
##akens
inclus
goodale
camilla
richer
tabs
misbeh
##ciences
##guided
937
sudanese
archaeologists
arvind
bakers
piss
zel
##jad
cannes
outf
embe
edging
slender
boardwalk
precinct
concentrations
stylist
complementary
rmb
unsurprisingly
##z1
##gios
##ril
unification
firsthand
majesty
##apeake
316
encarn
squar
flyer
scarf
reactors
explanations
nostalgic
oscillator
exemplary
humiliating
abdomen
8am
deeds
##ailing
covington
nightly
corb
##oppable
shortest
husbands
decidedly
shopper
reluctance
cyril
clyde
nour
ves
##ía
##oug
canv
composure
visuals
testosterone
moff
radford
legalize
extracted
bagley
##global
##ymes
lindelof
gabby
fabricated
##occup
shiite
bnp
landslides
necklace
bolog
cme
lour
lured
##rac
thumbs
choke
plaster
manic
newswise
##ussen
greed
browne
tabled
springer
kelvin
congrats
rusher
arraignment
charismatic
gork
##illions
##uliar
appointing
joa
husky
definite
412
behaving
lydia
mazda
evidenced
dhawan
tester
shines
heyn
##ocious
##abel
brah
mare
playwright
##pless
demi
slips
obi
244
camila
intricate
melinda
casper
0409
1954
1955
1946
gladstone
myths
peggy
staircase
embryos
loll
ond
ober
leased
expiring
##obo
instal
swoop
limelight
macer
vacations
arabian
terminally
fabio
cherish
riped
downgrade
infinite
chesapeake
monsanto
whirlwind
xfinity
embezz
wann
##kers
deli
brees
buildup
estonia
waver
eroded
bananas
treason
responsibly
malay
cebu
culturally
appliance
hillsborough
baez
vibes
interpreter
hustle
strasburg
assortment
encarnacion
raff
##lees
visions
samara
precarious
marshals
jerem
ghanaian
reassuring
peculiar
redesigned
envisioned
disbelief
cues
miy
##lov
##asley
##ivation
##abies
enfield
expiration
feinstein
emailaddress
customary
antiox
designate
magp
garry
charlton
widened
streamlined
ajay
underscored
blistering
nausea
incarcerated
antioxid
920
fitt
gaw
io
jails
##anza
comet
yous
##abilia
manu
##boo
scenery
catholics
constructing
adversely
correspondence
hdr
vix
##ppy
canned
quay
##hne
sled
hardcore
balm
apologizing
pixar
poke
zte
gru
allardy
caric
##eko
glenc
simm
raider
paycheck
differentiate
deadlock
esports
recognizable
##haji
lorry
tossing
hesitation
coincide
dysfunction
conformist
microbes
fugitive
salsa
allardyce
kf
##rate
shady
soar
##roft
subaru
1300
ramaph
cherished
resentment
pinnacle
bespoke
litt
nang
framing
memes
greets
multif
forehead
melod
fillon
counterter
brainer
luca
comparatively
synonymous
£200
enhancements
entitles
prosth
explorers
variables
purportedly
hovering
sabotage
marseille
reprieve
ratch
upp
compression
restitution
bowles
groundwater
saturn
hinder
kristin
sacrificed
surrogate
theodore
hips
##omics
quer
addison
finisher
boiled
discovers
mcbride
##govern
crossbar
existential
princes
kiwi
postpon
intrigued
1920s
wob
##mit
##wed
##elier
stains
carole
belize
roadmap
daven
commissioning
deepen
carrots
afforded
oxlade
cynical
screwed
noodles
##itic
##icating
buk
sane
forwarded
maddon
348
memorabilia
nicklaus
botched
biking
prescribing
zarif
emboldened
ineligible
korn
mé
##ocally
mea
knocks
glor
254
californians
dwyer
bethes
counsellor
lombardi
grappling
disproportionate
6am
tud
onlook
chub
brushing
timeframe
typewr
336
sherwood
huron
longh
serbian
abhorrent
oscillates
psychiatrist
raqqa
rund
ripping
##kamp
beams
2050
colombo
skyl
##haar
psyched
ramaphosa
cers
##mia
##zar
##alta
agile
evade
type4
type3
martins
shelley
divert
alvaro
discretionary
exacerbated
odyssey
onslaught
kj
somm
##atz
combs
alli
resemble
beginnings
inspires
splend
spinoff
breaching
cockpit
kyrgios
betrayed
pianist
##wickshire
lique
##rn
haf
quits
legged
windshield
captains
castillo
flooring
miscon
hanover
persistence
brantley
emancipation
kobe
arians
worsh
offload
##train
retains
francona
begs
truths
lunchtime
deception
offspring
improvised
emmerdale
quincy
##atum
insom
engages
berries
##ckes
tumour
bethesda
glee
pah
woj
##400
tobi
##ocon
crowns
stunts
organisms
zimbabwean
fragmented
gpu
naugh
matteo
settlers
carrick
470
georgian
naidu
fluids
conspired
accommodations
spraying
forsyth
buoyed
baird
caves
dari
##ionage
sealing
depp
brist
unlic
ashwin
bursting
##ojis
pudding
regretted
ritz
wanda
##icle
saff
hain
##antan
encro
marquette
incite
mania
relinqu
##cra
discern
sanju
805
faulk
spectator
grenada
authentication
kios
ched
arre
allianz
elgin
##venir
greer
sunscreen
paused
rockford
ethere
novice
ellsworth
kaplan
turboch
##wild
##asco
haze
seym
noisy
imply
elgar
##itsch
sharap
##eseen
owl
kristina
michelin
twilight
agh
lizz
rer
##izen
keane
35th
fantas
birdies
ceramics
gart
nell
pipp
##wired
##imal
suicides
##ixel
##ocratic
declares
disclosing
folding
piracy
quartz
prematurely
archaeological
landowners
unequivocally
microwave
##edin
##imps
indycar
interiors
258
customization
britons
enjoyment
610
picturesque
hartley
phelps
oat
allotted
helpless
capitalist
##iscover
499
877
scratching
devotion
lithu
surpassing
unlicensed
nus
##tas
##enthal
##umont
unpl
oph
salford
topeka
micha
diaries
seldom
forceful
munoz
##class
narrated
bruising
attachment
neurons
rosenberg
orchestrated
mathematical
paraguay
gild
##human
##billion
##estown
##eard
noticing
compress
##grave
informant
irons
garfield
##tiary
voyage
patrolling
sharapova
bitters
crad
ifr
menstr
pollock
wrongful
sadio
adjustable
motivations
wisely
capsules
ponder
pegged
desserts
##birth
jumpsuit
cohort
covenant
multicultural
b593
heynckes
nts
onshore
##igl
conqu
parity
donkey
skipping
276
brokered
sarat
honourable
deteriorated
schizophrenia
ola
tripp
##trans
roach
souvenir
##azoo
teller
cancelling
samson
##comings
psycho
pledging
matsuyama
fayetteville
biomedical
kak
liang
upped
##naires
##atore
alk
wex
pollin
##icki
preacher
tertiary
##coal
shortcomings
pharmacies
880
jurassic
baum
rabbits
tobago
relievers
unstoppable
gruden
##burs
evgen
oldham
skaters
paolo
halluc
italians
kroger
nikol
peacock
mafia
ahn
aero
hays
ivey
wf
chey
tequ
##ondale
##onta
simplicity
mutation
java
boomers
brisk
hogg
hilary
duluth
nexus
swirling
7am
avert
tiles
##cases
subcommitt
1600
directorial
234
orderly
denouncing
##umenthal
321
nominal
azure
duran
conception
massey
accelerator
intimidate
mauricio
huffington
accreditation
counterterrorism
mx
shaved
##usch
hails
##endously
257
likened
##fica
bottas
berk
615
paradox
nottinghamshire
ezek
##zie
##uni
worris
enugu
##ansky
##obic
medley
dems
harming
##appers
classmate
focuss
contractual
hallmark
royalties
adrift
ruck
sturr
##andan
paral
awakens
353
karim
pedig
efficiencies
ramps
roommate
faux
hoe
pang
##inarily
alias
provoked
bellev
demar
##ypse
##prod
caul
mening
funky
knowledgeable
lynne
ronny
gentry
plummer
diminish
emperor
pessim
worrisome
faked
gyp
lm
trun
exquisite
centred
calorie
equitable
##lerosis
squares
bathing
rspca
ethos
mirac
franchisees
manipulated
hortic
davenport
seymour
ck
pines
##notes
##loud
##esi
##brush
##prom
regulars
905
lucie
locke
##iyar
thumbnail
anchorage
tutor
inferno
##iskova
practitioner
leukemia
enshr
1a
jaws
mct
yuc
##mobile
##inting
pliskova
manpower
##oused
excise
complied
sadiq
dungey
boucher
featherweight
excerpts
##anks
stove
trough
knots
##athe
swam
whitehead
competence
broaden
clinching
predatory
displacement
fulani
alto
[...]
